{
  "version": "1.0",
  "truncation": null,
  "padding": null,
  "added_tokens": [],
  "normalizer": null,
  "pre_tokenizer": {
    "type": "Whitespace"
  },
  "post_processor": null,
  "decoder": null,
  "model": {
    "type": "BPE",
    "dropout": null,
    "unk_token": null,
    "continuing_subword_prefix": null,
    "end_of_word_suffix": null,
    "fuse_unk": false,
    "byte_fallback": false,
    "ignore_merges": false,
    "vocab": {
      "\"": 0,
      "%": 1,
      "&": 2,
      "(": 3,
      ")": 4,
      "+": 5,
      ",": 6,
      "-": 7,
      ".": 8,
      "0": 9,
      "1": 10,
      "2": 11,
      "3": 12,
      "4": 13,
      "5": 14,
      "6": 15,
      "7": 16,
      "8": 17,
      "9": 18,
      ":": 19,
      ";": 20,
      "<": 21,
      "=": 22,
      ">": 23,
      "?": 24,
      "A": 25,
      "B": 26,
      "C": 27,
      "D": 28,
      "E": 29,
      "F": 30,
      "G": 31,
      "H": 32,
      "I": 33,
      "J": 34,
      "K": 35,
      "L": 36,
      "M": 37,
      "N": 38,
      "O": 39,
      "P": 40,
      "Q": 41,
      "R": 42,
      "S": 43,
      "T": 44,
      "U": 45,
      "V": 46,
      "W": 47,
      "X": 48,
      "Y": 49,
      "Z": 50,
      "a": 51,
      "b": 52,
      "c": 53,
      "d": 54,
      "e": 55,
      "f": 56,
      "g": 57,
      "h": 58,
      "i": 59,
      "j": 60,
      "k": 61,
      "l": 62,
      "m": 63,
      "n": 64,
      "o": 65,
      "p": 66,
      "q": 67,
      "r": 68,
      "s": 69,
      "t": 70,
      "u": 71,
      "v": 72,
      "w": 73,
      "x": 74,
      "y": 75,
      "z": 76,
      "²": 77,
      "³": 78,
      "Á": 79,
      "Â": 80,
      "Ý": 81,
      "à": 82,
      "á": 83,
      "â": 84,
      "ã": 85,
      "è": 86,
      "é": 87,
      "ê": 88,
      "ì": 89,
      "í": 90,
      "ò": 91,
      "ó": 92,
      "ô": 93,
      "õ": 94,
      "ù": 95,
      "ú": 96,
      "ý": 97,
      "ă": 98,
      "Đ": 99,
      "đ": 100,
      "ĩ": 101,
      "ũ": 102,
      "ơ": 103,
      "ư": 104,
      "ạ": 105,
      "ả": 106,
      "ấ": 107,
      "ầ": 108,
      "ẩ": 109,
      "ẫ": 110,
      "ậ": 111,
      "ắ": 112,
      "ằ": 113,
      "ẳ": 114,
      "ẵ": 115,
      "ặ": 116,
      "ẹ": 117,
      "ẻ": 118,
      "ẽ": 119,
      "ế": 120,
      "ề": 121,
      "ể": 122,
      "ễ": 123,
      "ệ": 124,
      "ỉ": 125,
      "ị": 126,
      "ọ": 127,
      "ỏ": 128,
      "ố": 129,
      "ồ": 130,
      "ổ": 131,
      "ỗ": 132,
      "ộ": 133,
      "ớ": 134,
      "ờ": 135,
      "ở": 136,
      "ỡ": 137,
      "ợ": 138,
      "ụ": 139,
      "ủ": 140,
      "ứ": 141,
      "ừ": 142,
      "ử": 143,
      "ữ": 144,
      "ự": 145,
      "ỳ": 146,
      "ỷ": 147,
      "ỹ": 148,
      "⁺": 149,
      "⁻": 150,
      "₂": 151,
      "₃": 152,
      "₄": 153,
      "ng": 154,
      "th": 155,
      "àu": 156,
      "nh": 157,
      "ch": 158,
      "và": 159,
      "tr": 160,
      "gi": 161,
      "màu": 162,
      "Màu": 163,
      "ác": 164,
      "ph": 165,
      "tạ": 166,
      "tạo": 167,
      "kh": 168,
      "iệ": 169,
      "cho": 170,
      "ên": 171,
      "cả": 172,
      "ườ": 173,
      "nà": 174,
      "cảm": 175,
      "sự": 176,
      "ông": 177,
      "ường": 178,
      "nào": 179,
      "anh": 180,
      "thể": 181,
      "giác": 182,
      "thường": 183,
      "ết": 184,
      "ong": 185,
      "iện": 186,
      "ắc": 187,
      "sắc": 188,
      "trong": 189,
      "có": 190,
      "ươ": 191,
      "ợp": 192,
      "hợp": 193,
      "xanh": 194,
      "không": 195,
      "ôi": 196,
      "thi": 197,
      "ang": 198,
      "các": 199,
      "để": 200,
      "ới": 201,
      "an": 202,
      "thiết": 203,
      "nên": 204,
      "ại": 205,
      "kế": 206,
      "vàng": 207,
      "ương": 208,
      "hiện": 209,
      "dụ": 210,
      "ượ": 211,
      "qu": 212,
      "ùng": 213,
      "ẩm": 214,
      "ho": 215,
      "iể": 216,
      "dụng": 217,
      "dùng": 218,
      "phẩm": 219,
      "Tôi": 220,
      "am": 221,
      "ngh": 222,
      "mộ": 223,
      "ặc": 224,
      "lá": 225,
      "ật": 226,
      "một": 227,
      "gì": 228,
      "ây": 229,
      "là": 230,
      "ản": 231,
      "sử": 232,
      "ọn": 233,
      "hoặc": 234,
      "chọn": 235,
      "phù": 236,
      "uy": 237,
      "với": 238,
      "ược": 239,
      "cây": 240,
      "được": 241,
      "úp": 242,
      "giúp": 243,
      "ắng": 244,
      "ích": 245,
      "dương": 246,
      "áng": 247,
      "ạn": 248,
      "đỏ": 249,
      "sẽ": 250,
      "trắng": 251,
      "uố": 252,
      "độ": 253,
      "nhạ": 254,
      "gian": 255,
      "ến": 256,
      "iên": 257,
      "ăng": 258,
      "sáng": 259,
      "sản": 260,
      "tươ": 261,
      "tươi": 262,
      "ao": 263,
      "uốn": 264,
      "ti": 265,
      "tí": 266,
      "ủa": 267,
      "của": 268,
      "muốn": 269,
      "cam": 270,
      "thu": 271,
      "ất": 272,
      "àng": 273,
      "te": 274,
      "ám": 275,
      "kết": 276,
      "ồng": 277,
      "âu": 278,
      "ân": 279,
      "mang": 280,
      "biể": 281,
      "en": 282,
      "áo": 283,
      "nhạt": 284,
      "ổi": 285,
      "động": 286,
      "lại": 287,
      "như": 288,
      "thị": 289,
      "ra": 290,
      "thích": 291,
      "biểu": 292,
      "ình": 293,
      "công": 294,
      "đen": 295,
      "ợi": 296,
      "đại": 297,
      "làm": 298,
      "ạnh": 299,
      "si": 300,
      "nghệ": 301,
      "Bạn": 302,
      "năng": 303,
      "ọng": 304,
      "gợi": 305,
      "xám": 306,
      "trang": 307,
      "trọng": 308,
      "hồng": 309,
      "ần": 310,
      "ền": 311,
      "ực": 312,
      "ui": 313,
      "vui": 314,
      "chú": 315,
      "eb": 316,
      "ịch": 317,
      "ức": 318,
      "ách": 319,
      "web": 320,
      "ối": 321,
      "dễ": 322,
      "nâu": 323,
      "đề": 324,
      "ấm": 325,
      "nhiên": 326,
      "nổi": 327,
      "ững": 328,
      "mạnh": 329,
      "bật": 330,
      "ảng": 331,
      "về": 332,
      "ăn": 333,
      "mới": 334,
      "cáo": 335,
      "vì": 336,
      "site": 337,
      "kiện": 338,
      "quảng": 339,
      "website": 340,
      "đến": 341,
      "ời": 342,
      "tím": 343,
      "điể": 344,
      "sang": 345,
      "thuật": 346,
      "ếu": 347,
      "chủ": 348,
      "vẻ": 349,
      "khí": 350,
      "Xanh": 351,
      "quan": 352,
      "tự": 353,
      "rất": 354,
      "tôi": 355,
      "thì": 356,
      "ung": 357,
      "thiện": 358,
      "ải": 359,
      "òng": 360,
      "chuy": 361,
      "những": 362,
      "ấp": 363,
      "phòng": 364,
      "iệp": 365,
      "cổ": 366,
      "tính": 367,
      "thư": 368,
      "mẽ": 369,
      "áp": 370,
      "ạc": 371,
      "ượng": 372,
      "lo": 373,
      "ty": 374,
      "út": 375,
      "Có": 376,
      "ãn": 377,
      "giãn": 378,
      "điển": 379,
      "ấn": 380,
      "ái": 381,
      "ống": 382,
      "Nếu": 383,
      "thân": 384,
      "bì": 385,
      "sức": 386,
      "nghiệp": 387,
      "ội": 388,
      "trẻ": 389,
      "trung": 390,
      "ành": 391,
      "ơn": 392,
      "truy": 393,
      "tin": 394,
      "im": 395,
      "liên": 396,
      "ste": 397,
      "hút": 398,
      "nhân": 399,
      "oà": 400,
      "lịch": 401,
      "ịu": 402,
      "nhẹ": 403,
      "ập": 404,
      "át": 405,
      "khi": 406,
      "cậ": 407,
      "đậ": 408,
      "bạc": 409,
      "chúng": 410,
      "đậm": 411,
      "văn": 412,
      "iệc": 413,
      "nhàng": 414,
      "iệu": 415,
      "thời": 416,
      "vật": 417,
      "tác": 418,
      "ọc": 419,
      "bình": 420,
      "úc": 421,
      "tho": 422,
      "thực": 423,
      "chuyên": 424,
      "hơn": 425,
      "bộ": 426,
      "thanh": 427,
      "thao": 428,
      "ện": 429,
      "án": 430,
      "gam": 431,
      "ữa": 432,
      "gần": 433,
      "hiệu": 434,
      "ùa": 435,
      "thương": 436,
      "mùa": 437,
      "tập": 438,
      "ười": 439,
      "người": 440,
      "em": 441,
      "tế": 442,
      "tinh": 443,
      "chịu": 444,
      "ánh": 445,
      "go": 446,
      "êu": 447,
      "sống": 448,
      "yên": 449,
      "bạn": 450,
      "10": 451,
      "diện": 452,
      "hàng": 453,
      "iến": 454,
      "30": 455,
      "cậy": 456,
      "60": 457,
      "gũ": 458,
      "oàn": 459,
      "gũi": 460,
      "19": 461,
      "12": 462,
      "32": 463,
      "42": 464,
      "52": 465,
      "iề": 466,
      "dịch": 467,
      "17": 468,
      "18": 469,
      "37": 470,
      "38": 471,
      "39": 472,
      "40": 473,
      "47": 474,
      "48": 475,
      "49": 476,
      "50": 477,
      "62": 478,
      "57": 479,
      "58": 480,
      "59": 481,
      "67": 482,
      "68": 483,
      "69": 484,
      "tố": 485,
      "thế": 486,
      "Kh": 487,
      "bí": 488,
      "tăng": 489,
      "khách": 490,
      "lên": 491,
      "nó": 492,
      "cao": 493,
      "âm": 494,
      "Đỏ": 495,
      "cấp": 496,
      "toàn": 497,
      "ạch": 498,
      "nhạc": 499,
      "này": 500,
      "bìa": 501,
      "đồ": 502,
      "thiên": 503,
      "ài": 504,
      "cần": 505,
      "cách": 506,
      "quy": 507,
      "khỏ": 508,
      "ướ": 509,
      "học": 510,
      "tối": 511,
      "iều": 512,
      "khỏe": 513,
      "nghĩ": 514,
      "trí": 515,
      "po": 516,
      "giữa": 517,
      "ne": 518,
      "sạch": 519,
      "ay": 520,
      "tượng": 521,
      "ẫn": 522,
      "hội": 523,
      "phong": 524,
      "ục": 525,
      "pa": 526,
      "sao": 527,
      "ảo": 528,
      "ấy": 529,
      "ận": 530,
      "cường": 531,
      "ưở": 532,
      "lã": 533,
      "truyền": 534,
      "ưởng": 535,
      "àm": 536,
      "thấy": 537,
      "Làm": 538,
      "ster": 539,
      "dẫn": 540,
      "tì": 541,
      "tìm": 542,
      "ẩn": 543,
      "phản": 544,
      "logo": 545,
      "au": 546,
      "lượng": 547,
      "việc": 548,
      "xu": 549,
      "phim": 550,
      "tương": 551,
      "mái": 552,
      "iệt": 553,
      "Vàng": 554,
      "thoải": 555,
      "poster": 556,
      "trên": 557,
      "hấp": 558,
      "trông": 559,
      "trời": 560,
      "tích": 561,
      "trường": 562,
      "on": 563,
      "óa": 564,
      "thông": 565,
      "truyện": 566,
      "stel": 567,
      "đầ": 568,
      "kim": 569,
      "ăm": 570,
      "đổi": 571,
      "pastel": 572,
      "môi": 573,
      "óc": 574,
      "hò": 575,
      "ạt": 576,
      "hóa": 577,
      "hòa": 578,
      "bảo": 579,
      "huy": 580,
      "nhau": 581,
      "loại": 582,
      "tình": 583,
      "tốt": 584,
      "22": 585,
      "11": 586,
      "33": 587,
      "44": 588,
      "55": 589,
      "hoạt": 590,
      "66": 591,
      "tâm": 592,
      "phục": 593,
      "ếp": 594,
      "trở": 595,
      "sinh": 596,
      "nền": 597,
      "vi": 598,
      "lãng": 599,
      "úng": 600,
      "mạn": 601,
      "nội": 602,
      "mát": 603,
      "dục": 604,
      "20": 605,
      "27": 606,
      "28": 607,
      "29": 608,
      "du": 609,
      "ắt": 610,
      "uyến": 611,
      "cúng": 612,
      "dàng": 613,
      "ứng": 614,
      "ước": 615,
      "xe": 616,
      "ĩnh": 617,
      "bao": 618,
      "đồng": 619,
      "hình": 620,
      "nhận": 621,
      "vụ": 622,
      "13": 623,
      "14": 624,
      "15": 625,
      "16": 626,
      "bền": 627,
      "sóc": 628,
      "vững": 629,
      "chăm": 630,
      "iệm": 631,
      "gia": 632,
      "Ch": 633,
      "ban": 634,
      "thất": 635,
      "cực": 636,
      "mà": 637,
      "hành": 638,
      "tiệc": 639,
      "ộng": 640,
      "kích": 641,
      "ưng": 642,
      "đầy": 643,
      "game": 644,
      "ner": 645,
      "Sự": 646,
      "be": 647,
      "ơi": 648,
      "ẹp": 649,
      "chiến": 650,
      "34": 651,
      "35": 652,
      "36": 653,
      "bu": 654,
      "inh": 655,
      "xúc": 656,
      "huyền": 657,
      "đẹp": 658,
      "ựa": 659,
      "bán": 660,
      "ạng": 661,
      "ẳng": 662,
      "tranh": 663,
      "tiếp": 664,
      "banner": 665,
      "tĩnh": 666,
      "ào": 667,
      "ưu": 668,
      "điểm": 669,
      "biển": 670,
      "Khi": 671,
      "êm": 672,
      "ai": 673,
      "lựa": 674,
      "do": 675,
      "chỉ": 676,
      "phối": 677,
      "Không": 678,
      "ảnh": 679,
      "iển": 680,
      "46": 681,
      "hè": 682,
      "giao": 683,
      "45": 684,
      "Cam": 685,
      "điều": 686,
      "sách": 687,
      "giáo": 688,
      "quá": 689,
      "nữ": 690,
      "cảnh": 691,
      "xuất": 692,
      "ảm": 693,
      "giản": 694,
      "phấn": 695,
      "56": 696,
      "da": 697,
      "nước": 698,
      "tải": 699,
      "ngành": 700,
      "nhớ": 701,
      "khác": 702,
      "ằng": 703,
      "trưng": 704,
      "khích": 705,
      "đị": 706,
      "in": 707,
      "nối": 708,
      "lễ": 709,
      "tưởng": 710,
      "triển": 711,
      "70": 712,
      "di": 713,
      "từ": 714,
      "điện": 715,
      "bị": 716,
      "hồ": 717,
      "mắt": 718,
      "đang": 719,
      "Chủ": 720,
      "ính": 721,
      "đáng": 722,
      "ngoà": 723,
      "nhà": 724,
      "ngoài": 725,
      "biệt": 726,
      "rũ": 727,
      "óng": 728,
      "kho": 729,
      "quyến": 730,
      "vệ": 731,
      "eo": 732,
      "ón": 733,
      "cải": 734,
      "54": 735,
      "lý": 736,
      "quý": 737,
      "Nâu": 738,
      "sâu": 739,
      "thành": 740,
      "khuyến": 741,
      "uống": 742,
      "định": 743,
      "Tại": 744,
      "chi": 745,
      "khu": 746,
      "65": 747,
      "Vì": 748,
      "hiể": 749,
      "phát": 750,
      "31": 751,
      "Các": 752,
      "lạnh": 753,
      "đông": 754,
      "thống": 755,
      "Tr": 756,
      "món": 757,
      "đường": 758,
      "64": 759,
      "khám": 760,
      "cà": 761,
      "yêu": 762,
      "ặng": 763,
      "ển": 764,
      "ổn": 765,
      "chính": 766,
      "nghĩa": 767,
      "Đen": 768,
      "ạo": 769,
      "43": 770,
      "53": 771,
      "phố": 772,
      "phái": 773,
      "đội": 774,
      "hồi": 775,
      "ge": 776,
      "đặc": 777,
      "ắn": 778,
      "Sử": 779,
      "iết": 780,
      "sôi": 781,
      "tài": 782,
      "cận": 783,
      "26": 784,
      "41": 785,
      "dịu": 786,
      "51": 787,
      "63": 788,
      "Lo": 789,
      "báo": 790,
      "xã": 791,
      "thay": 792,
      "hiểm": 793,
      "cơ": 794,
      "niệm": 795,
      "yếu": 796,
      "tiết": 797,
      "căng": 798,
      "hài": 799,
      "vào": 800,
      "25": 801,
      "61": 802,
      "Ph": 803,
      "ởi": 804,
      "ửa": 805,
      "cá": 806,
      "cửa": 807,
      "tử": 808,
      "thẳng": 809,
      "phá": 810,
      "phê": 811,
      "24": 812,
      "ầu": 813,
      "khởi": 814,
      "quán": 815,
      "Logo": 816,
      "Dĩ": 817,
      "gây": 818,
      "lớ": 819,
      "giảm": 820,
      "tiêu": 821,
      "Hồng": 822,
      "biến": 823,
      "biết": 824,
      "lực": 825,
      "vực": 826,
      "nhấn": 827,
      "chức": 828,
      "nghi": 829,
      "buổi": 830,
      "ki": 831,
      "đình": 832,
      "23": 833,
      "co": 834,
      "mỹ": 835,
      "chất": 836,
      "quyết": 837,
      "họ": 838,
      "mẻ": 839,
      "thú": 840,
      "chuyển": 841,
      "ướng": 842,
      "Trắng": 843,
      "al": 844,
      "lạc": 845,
      "nhiều": 846,
      "nhiệt": 847,
      "21": 848,
      "tô": 849,
      "dư": 850,
      "tổ": 851,
      "phi": 852,
      "Tí": 853,
      "đa": 854,
      "ộc": 855,
      "ứa": 856,
      "độc": 857,
      "chuyện": 858,
      "neon": 859,
      "Tím": 860,
      "hai": 861,
      "đối": 862,
      "nhanh": 863,
      "giải": 864,
      "phải": 865,
      "câu": 866,
      "ige": 867,
      "kỷ": 868,
      "đi": 869,
      "chu": 870,
      "chứa": 871,
      "trình": 872,
      "beige": 873,
      "lưu": 874,
      "ũng": 875,
      "chơi": 876,
      "giới": 877,
      "nghiêm": 878,
      "bệ": 879,
      "dự": 880,
      "ắm": 881,
      "ếm": 882,
      "ọt": 883,
      "ngọt": 884,
      "phần": 885,
      "khả": 886,
      "bệnh": 887,
      "bóng": 888,
      "hệ": 889,
      "hướng": 890,
      "ãi": 891,
      "đơn": 892,
      "trực": 893,
      "khẩn": 894,
      "bức": 895,
      "ưa": 896,
      "kiếm": 897,
      "Xám": 898,
      "bằng": 899,
      "xem": 900,
      "đất": 901,
      "ấu": 902,
      "ỡng": 903,
      "nhỏ": 904,
      "dưỡng": 905,
      "bổ": 906,
      "dạng": 907,
      "ngủ": 908,
      "cư": 909,
      "hộ": 910,
      "àn": 911,
      "tại": 912,
      "khiết": 913,
      "hữ": 914,
      "ềm": 915,
      "ồn": 916,
      "cưới": 917,
      "hữu": 918,
      "bản": 919,
      "kiến": 920,
      "tuyến": 921,
      "đã": 922,
      "ngon": 923,
      "phúc": 924,
      "cộng": 925,
      "cũng": 926,
      "hạnh": 927,
      "lập": 928,
      "ìn": 929,
      "ngào": 930,
      "thần": 931,
      "thái": 932,
      "nhìn": 933,
      "trúc": 934,
      "tôn": 935,
      "Với": 936,
      "đáo": 937,
      "ốc": 938,
      "trạng": 939,
      "80": 940,
      "hưởng": 941,
      "tường": 942,
      "túc": 943,
      "vị": 944,
      "ày": 945,
      "điệp": 946,
      "thức": 947,
      "chế": 948,
      "phú": 949,
      "khiến": 950,
      "cân": 951,
      "mềm": 952,
      "đẳng": 953,
      "lành": 954,
      "nhưng": 955,
      "phiêu": 956,
      "bữa": 957,
      "dị": 958,
      "hứng": 959,
      "đọc": 960,
      "theo": 961,
      "phổ": 962,
      "uyện": 963,
      "tín": 964,
      "thoát": 965,
      "Qu": 966,
      "deo": 967,
      "ga": 968,
      "luyện": 969,
      "nút": 970,
      "rằng": 971,
      "sưu": 972,
      "èm": 973,
      "ói": 974,
      "giàu": 975,
      "video": 976,
      "79": 977,
      "89": 978,
      "huống": 979,
      "mê": 980,
      "viên": 981,
      "đam": 982,
      "ngọc": 983,
      "chuộng": 984,
      "2D": 985,
      "kỳ": 986,
      "ta": 987,
      "hoa": 988,
      "Phối": 989,
      "77": 990,
      "88": 991,
      "90": 992,
      "Bộ": 993,
      "lặng": 994,
      "rượ": 995,
      "ễn": 996,
      "ọi": 997,
      "nguy": 998,
      "thèm": 999,
      "phụ": 1000,
      "nghiệm": 1001,
      "quyền": 1002,
      "rượu": 1003,
      "99": 1004,
      "tu": 1005,
      "quần": 1006,
      "thoại": 1007,
      "đầu": 1008,
      "họa": 1009,
      "78": 1010,
      "nông": 1011,
      "tắm": 1012,
      "lẽ": 1013,
      "tam": 1014,
      "trưởng": 1015,
      "xuân": 1016,
      "vitam": 1017,
      "lớp": 1018,
      "coi": 1019,
      "lẽo": 1020,
      "vitamin": 1021,
      "87": 1022,
      "bánh": 1023,
      "miệ": 1024,
      "quốc": 1025,
      "hộp": 1026,
      "miệng": 1027,
      "97": 1028,
      "98": 1029,
      "mình": 1030,
      "ar": 1031,
      "cu": 1032,
      "gắn": 1033,
      "ừu": 1034,
      "nhất": 1035,
      "trừu": 1036,
      "tạp": 1037,
      "khát": 1038,
      "quả": 1039,
      "cuộc": 1040,
      "cầu": 1041,
      "dành": 1042,
      "kinh": 1043,
      "mơ": 1044,
      "tư": 1045,
      "tuy": 1046,
      "xa": 1047,
      "thêm": 1048,
      "chói": 1049,
      "siêu": 1050,
      "huyết": 1051,
      "khoa": 1052,
      "kịch": 1053,
      "nay": 1054,
      "vận": 1055,
      "tránh": 1056,
      "phức": 1057,
      "iềm": 1058,
      "bầu": 1059,
      "lắng": 1060,
      "rỡ": 1061,
      "rực": 1062,
      "tràn": 1063,
      "khó": 1064,
      "nóng": 1065,
      "li": 1066,
      "lục": 1067,
      "ma": 1068,
      "mạo": 1069,
      "niềm": 1070,
      "rộng": 1071,
      "tông": 1072,
      "tham": 1073,
      "chiều": 1074,
      "giá": 1075,
      "nghỉ": 1076,
      "lớn": 1077,
      "00": 1078,
      "01": 1079,
      "02": 1080,
      "03": 1081,
      "04": 1082,
      "05": 1083,
      "06": 1084,
      "07": 1085,
      "08": 1086,
      "09": 1087,
      "71": 1088,
      "72": 1089,
      "73": 1090,
      "81": 1091,
      "83": 1092,
      "84": 1093,
      "85": 1094,
      "86": 1095,
      "92": 1096,
      "95": 1097,
      "96": 1098,
      "lợi": 1099,
      "mu": 1100,
      "mại": 1101,
      "oga": 1102,
      "tiện": 1103,
      "vọng": 1104,
      "yoga": 1105,
      "đấu": 1106,
      "74": 1107,
      "75": 1108,
      "76": 1109,
      "82": 1110,
      "91": 1111,
      "93": 1112,
      "94": 1113,
      "av": 1114,
      "cuốn": 1115,
      "de": 1116,
      "hy": 1117,
      "ặt": 1118,
      "bếp": 1119,
      "kem": 1120,
      "linh": 1121,
      "nâ": 1122,
      "sung": 1123,
      "spa": 1124,
      "tái": 1125,
      "nhật": 1126,
      "chanh": 1127,
      "doanh": 1128,
      "Phong": 1129,
      "tuổi": 1130,
      "nâng": 1131,
      "gh": 1132,
      "lam": 1133,
      "to": 1134,
      "tiên": 1135,
      "tiến": 1136,
      "thoáng": 1137,
      "Quán": 1138,
      "Th": 1139,
      "ro": 1140,
      "èn": 1141,
      "đèn": 1142,
      "trải": 1143,
      "qua": 1144,
      "dung": 1145,
      "má": 1146,
      "ép": 1147,
      "đá": 1148,
      "ỏi": 1149,
      "thủ": 1150,
      "trị": 1151,
      "khứ": 1152,
      "khơi": 1153,
      "quà": 1154,
      "đôi": 1155,
      "ếc": 1156,
      "khắc": 1157,
      "chiếc": 1158,
      "đãng": 1159,
      "bắt": 1160,
      "gọi": 1161,
      "hào": 1162,
      "lôi": 1163,
      "vấn": 1164,
      "ệt": 1165,
      "nhi": 1166,
      "chống": 1167,
      "phương": 1168,
      "rau": 1169,
      "dựng": 1170,
      "bo": 1171,
      "bất": 1172,
      "nav": 1173,
      "rãi": 1174,
      "tóc": 1175,
      "tặng": 1176,
      "vườ": 1177,
      "xây": 1178,
      "đạo": 1179,
      "ậy": 1180,
      "lãm": 1181,
      "mua": 1182,
      "navy": 1183,
      "vườn": 1184,
      "Gam": 1185,
      "mô": 1186,
      "mối": 1187,
      "mạch": 1188,
      "ym": 1189,
      "ừng": 1190,
      "ngay": 1191,
      "chóng": 1192,
      "trương": 1193,
      "giữ": 1194,
      "hoài": 1195,
      "nghị": 1196,
      "tim": 1197,
      "buồn": 1198,
      "khoảnh": 1199,
      "el": 1200,
      "hùng": 1201,
      "mật": 1202,
      "mời": 1203,
      "náo": 1204,
      "viện": 1205,
      "Để": 1206,
      "thẩm": 1207,
      "giày": 1208,
      "phân": 1209,
      "cứ": 1210,
      "gym": 1211,
      "hay": 1212,
      "hơi": 1213,
      "mất": 1214,
      "mặt": 1215,
      "tả": 1216,
      "ude": 1217,
      "ví": 1218,
      "ãnh": 1219,
      "ầm": 1220,
      "chương": 1221,
      "khăn": 1222,
      "mộng": 1223,
      "tic": 1224,
      "thuộc": 1225,
      "Chọn": 1226,
      "cứu": 1227,
      "Kết": 1228,
      "ck": 1229,
      "la": 1230,
      "nặng": 1231,
      "sữa": 1232,
      "xơ": 1233,
      "êng": 1234,
      "đảm": 1235,
      "làn": 1236,
      "diễn": 1237,
      ").": 1238,
      "3không": 1239,
      "Nh": 1240,
      "bạo": 1241,
      "cô": 1242,
      "cưng": 1243,
      "lĩnh": 1244,
      "mức": 1245,
      "mạng": 1246,
      "năm": 1247,
      "tùng": 1248,
      "tức": 1249,
      "xi": 1250,
      "ão": 1251,
      "óm": 1252,
      "thúc": 1253,
      "nhóm": 1254,
      "chắc": 1255,
      "chay": 1256,
      "trò": 1257,
      "trào": 1258,
      "trầm": 1259,
      "giả": 1260,
      "thuê": 1261,
      "loài": 1262,
      "khoắn": 1263,
      "nguyên": 1264,
      "tuyển": 1265,
      "máy": 1266,
      "1nào": 1267,
      "Gi": 1268,
      "cụ": 1269,
      "dậy": 1270,
      "hạn": 1271,
      "hước": 1272,
      "ion": 1273,
      "minh": 1274,
      "mọi": 1275,
      "nề": 1276,
      "nta": 1277,
      "ur": 1278,
      "đo": 1279,
      "đô": 1280,
      "đương": 1281,
      "đào": 1282,
      "ễm": 1283,
      "nhu": 1284,
      "uối": 1285,
      "đều": 1286,
      "vinta": 1287,
      "họp": 1288,
      "nhiễm": 1289,
      "vintage": 1290,
      "4không": 1291,
      "dã": 1292,
      "hỏi": 1293,
      "kiên": 1294,
      "lòng": 1295,
      "số": 1296,
      "suy": 1297,
      "sắm": 1298,
      "táo": 1299,
      "vồng": 1300,
      "đó": 1301,
      "đám": 1302,
      "ẫm": 1303,
      "ớt": 1304,
      "ngân": 1305,
      "khao": 1306,
      "thịnh": 1307,
      "bum": 1308,
      "album": 1309,
      "Quảng": 1310,
      "4màu": 1311,
      "6không": 1312,
      "bảng": 1313,
      "dép": 1314,
      "gỗ": 1315,
      "nắng": 1316,
      "nude": 1317,
      "ox": 1318,
      "rối": 1319,
      "tách": 1320,
      "thí": 1321,
      "thử": 1322,
      "trái": 1323,
      "ghế": 1324,
      "ba": 1325,
      "bài": 1326,
      "duy": 1327,
      "kỹ": 1328,
      "kính": 1329,
      "lẻ": 1330,
      "lai": 1331,
      "mở": 1332,
      "màng": 1333,
      "or": 1334,
      "rõ": 1335,
      "vũ": 1336,
      "vượng": 1337,
      "đẩ": 1338,
      "đoàn": 1339,
      "đêm": 1340,
      "thảo": 1341,
      "chí": 1342,
      "chữ": 1343,
      "trà": 1344,
      "thiếu": 1345,
      "hoang": 1346,
      "pop": 1347,
      "Những": 1348,
      "đoán": 1349,
      "đẩy": 1350,
      "Nên": 1351,
      "bỉ": 1352,
      "bar": 1353,
      "es": 1354,
      "me": 1355,
      "mi": 1356,
      "mãi": 1357,
      "pin": 1358,
      "sạn": 1359,
      "sân": 1360,
      "tồn": 1361,
      "đây": 1362,
      "đâu": 1363,
      "ạm": 1364,
      "ỗi": 1365,
      "ngày": 1366,
      "thảm": 1367,
      "chờ": 1368,
      "chân": 1369,
      "chuyến": 1370,
      "loạn": 1371,
      "viễn": 1372,
      "tour": 1373,
      "Giáng": 1374,
      "2màu": 1375,
      "3nào": 1376,
      "432": 1377,
      "452": 1378,
      "5nào": 1379,
      "632": 1380,
      "642": 1381,
      "7không": 1382,
      "8không": 1383,
      "ED": 1384,
      "Hai": 1385,
      "bó": 1386,
      "bích": 1387,
      "binh": 1388,
      "can": 1389,
      "hi": 1390,
      "hát": 1391,
      "hãnh": 1392,
      "lu": 1393,
      "ol": 1394,
      "ràng": 1395,
      "sở": 1396,
      "sạc": 1397,
      "uồn": 1398,
      "vĩ": 1399,
      "xương": 1400,
      "xưa": 1401,
      "ngơi": 1402,
      "nguồn": 1403,
      "thám": 1404,
      "thượng": 1405,
      "chắn": 1406,
      "trước": 1407,
      "ượt": 1408,
      "quang": 1409,
      "ent": 1410,
      "vinh": 1411,
      "hiểu": 1412,
      "kiêu": 1413,
      "liu": 1414,
      "ghi": 1415,
      "oxy": 1416,
      "110": 1417,
      "130": 1418,
      "160": 1419,
      "119": 1420,
      "112": 1421,
      "132": 1422,
      "142": 1423,
      "152": 1424,
      "117": 1425,
      "118": 1426,
      "137": 1427,
      "138": 1428,
      "139": 1429,
      "140": 1430,
      "147": 1431,
      "148": 1432,
      "149": 1433,
      "150": 1434,
      "162": 1435,
      "157": 1436,
      "158": 1437,
      "159": 1438,
      "167": 1439,
      "168": 1440,
      "169": 1441,
      "210": 1442,
      "230": 1443,
      "260": 1444,
      "219": 1445,
      "212": 1446,
      "232": 1447,
      "242": 1448,
      "252": 1449,
      "217": 1450,
      "218": 1451,
      "237": 1452,
      "238": 1453,
      "239": 1454,
      "240": 1455,
      "247": 1456,
      "248": 1457,
      "249": 1458,
      "250": 1459,
      "262": 1460,
      "257": 1461,
      "258": 1462,
      "259": 1463,
      "267": 1464,
      "268": 1465,
      "269": 1466,
      "310": 1467,
      "330": 1468,
      "360": 1469,
      "319": 1470,
      "312": 1471,
      "332": 1472,
      "342": 1473,
      "352": 1474,
      "317": 1475,
      "318": 1476,
      "337": 1477,
      "338": 1478,
      "339": 1479,
      "340": 1480,
      "347": 1481,
      "348": 1482,
      "349": 1483,
      "350": 1484,
      "362": 1485,
      "357": 1486,
      "358": 1487,
      "359": 1488,
      "367": 1489,
      "368": 1490,
      "369": 1491,
      "410": 1492,
      "430": 1493,
      "460": 1494,
      "419": 1495,
      "412": 1496,
      "442": 1497,
      "417": 1498,
      "418": 1499,
      "437": 1500,
      "438": 1501,
      "439": 1502,
      "440": 1503,
      "447": 1504,
      "448": 1505,
      "449": 1506,
      "450": 1507,
      "462": 1508,
      "457": 1509,
      "458": 1510,
      "459": 1511,
      "467": 1512,
      "468": 1513,
      "469": 1514,
      "5màu": 1515,
      "510": 1516,
      "530": 1517,
      "560": 1518,
      "519": 1519,
      "512": 1520,
      "532": 1521,
      "542": 1522,
      "552": 1523,
      "517": 1524,
      "518": 1525,
      "537": 1526,
      "538": 1527,
      "539": 1528,
      "540": 1529,
      "547": 1530,
      "548": 1531,
      "549": 1532,
      "550": 1533,
      "562": 1534,
      "557": 1535,
      "558": 1536,
      "559": 1537,
      "567": 1538,
      "568": 1539,
      "569": 1540,
      "610": 1541,
      "630": 1542,
      "660": 1543,
      "619": 1544,
      "612": 1545,
      "652": 1546,
      "617": 1547,
      "618": 1548,
      "637": 1549,
      "638": 1550,
      "639": 1551,
      "640": 1552,
      "647": 1553,
      "648": 1554,
      "649": 1555,
      "650": 1556,
      "662": 1557,
      "657": 1558,
      "658": 1559,
      "659": 1560,
      "667": 1561,
      "668": 1562,
      "669": 1563,
      "9không": 1564,
      "Cách": 1565,
      "Dùng": 1566,
      "Web": 1567,
      "cò": 1568,
      "dài": 1569,
      "dừng": 1570,
      "ea": 1571,
      "gra": 1572,
      "hỗ": 1573,
      "ke": 1574,
      "liệu": 1575,
      "min": 1576,
      "nam": 1577,
      "rg": 1578,
      "ri": 1579,
      "st": 1580,
      "su": 1581,
      "stic": 1582,
      "tội": 1583,
      "vời": 1584,
      "vẫn": 1585,
      "ét": 1586,
      "Đối": 1587,
      "ộn": 1588,
      "ngà": 1589,
      "châu": 1590,
      "trinh": 1591,
      "lãnh": 1592,
      "địa": 1593,
      "dient": 1594,
      "tuyệt": 1595,
      "Website": 1596,
      "còn": 1597,
      "gradient": 1598,
      "0không": 1599,
      "3màu": 1600,
      "5không": 1601,
      "6màu": 1602,
      "6nào": 1603,
      "Bao": 1604,
      "LED": 1605,
      "bấm": 1606,
      "bãi": 1607,
      "bão": 1608,
      "con": 1609,
      "car": 1610,
      "dây": 1611,
      "gồ": 1612,
      "nếu": 1613,
      "ome": 1614,
      "ạp": 1615,
      "ẩu": 1616,
      "ốt": 1617,
      "thách": 1618,
      "trụ": 1619,
      "phép": 1620,
      "khẩu": 1621,
      "thiền": 1622,
      "quê": 1623,
      "quái": 1624,
      "ala": 1625,
      "Thể": 1626,
      "nhuận": 1627,
      "mint": 1628,
      "gồm": 1629,
      "2không": 1630,
      "3gì": 1631,
      "4nào": 1632,
      "4gì": 1633,
      "5gì": 1634,
      "7màu": 1635,
      "8nào": 1636,
      "Bắt": 1637,
      "Cần": 1638,
      "bùng": 1639,
      "bày": 1640,
      "cạnh": 1641,
      "dữ": 1642,
      "diệu": 1643,
      "dinh": 1644,
      "dũng": 1645,
      "ester": 1646,
      "ic": 1647,
      "lệ": 1648,
      "lấp": 1649,
      "mờ": 1650,
      "mặc": 1651,
      "mỏi": 1652,
      "nổ": 1653,
      "pH": 1654,
      "pe": 1655,
      "re": 1656,
      "ru": 1657,
      "rổ": 1658,
      "sợ": 1659,
      "sứ": 1660,
      "sủa": 1661,
      "sẫm": 1662,
      "tò": 1663,
      "tỷ": 1664,
      "tảng": 1665,
      "tăm": 1666,
      "đánh": 1667,
      "ằm": 1668,
      "thản": 1669,
      "tra": 1670,
      "khuy": 1671,
      "and": 1672,
      "lái": 1673,
      "lánh": 1674,
      "indi": 1675,
      "chiếu": 1676,
      "robo": 1677,
      "thủy": 1678,
      "chín": 1679,
      "indie": 1680,
      "robot": 1681,
      "),": 1682,
      "1màu": 1683,
      "1không": 1684,
      "1gì": 1685,
      "3chọn": 1686,
      "7nào": 1687,
      "9nào": 1688,
      "CT": 1689,
      "Mi": 1690,
      "bay": 1691,
      "bàn": 1692,
      "cy": 1693,
      "củ": 1694,
      "căn": 1695,
      "dược": 1696,
      "dâu": 1697,
      "dân": 1698,
      "dấu": 1699,
      "gối": 1700,
      "hiển": 1701,
      "kal": 1702,
      "lạ": 1703,
      "liệt": 1704,
      "lỗi": 1705,
      "mò": 1706,
      "mục": 1707,
      "móc": 1708,
      "mãnh": 1709,
      "não": 1710,
      "sảng": 1711,
      "sau": 1712,
      "tắc": 1713,
      "vai": 1714,
      "vượt": 1715,
      "xỉ": 1716,
      "ýt": 1717,
      "đảo": 1718,
      "ẹo": 1719,
      "⁺).": 1720,
      "ngô": 1721,
      "thơ": 1722,
      "nhã": 1723,
      "nhập": 1724,
      "nhộn": 1725,
      "chở": 1726,
      "chuối": 1727,
      "tri": 1728,
      "phí": 1729,
      "hoàn": 1730,
      "iểu": 1731,
      "nghiên": 1732,
      "đột": 1733,
      "thuần": 1734,
      "buýt": 1735,
      "khoác": 1736,
      "khoái": 1737,
      "miễn": 1738,
      "CTA": 1739,
      "kali": 1740,
      "0nào": 1741,
      "1chọn": 1742,
      "2gì": 1743,
      "3sắc": 1744,
      "6sắc": 1745,
      "8màu": 1746,
      "9màu": 1747,
      "Bo": 1748,
      "Cả": 1749,
      "Ho": 1750,
      "Sinh": 1751,
      "bã": 1752,
      "bơi": 1753,
      "cối": 1754,
      "cung": 1755,
      "cal": 1756,
      "dạo": 1757,
      "hã": 1758,
      "ké": 1759,
      "kẹo": 1760,
      "mì": 1761,
      "mị": 1762,
      "mạc": 1763,
      "móng": 1764,
      "ni": 1765,
      "nướng": 1766,
      "nét": 1767,
      "rs": 1768,
      "rừng": 1769,
      "so": 1770,
      "sy": 1771,
      "sơn": 1772,
      "sắt": 1773,
      "tay": 1774,
      "tau": 1775,
      "tắn": 1776,
      "un": 1777,
      "vang": 1778,
      "we": 1779,
      "ôn": 1780,
      "ùy": 1781,
      "đón": 1782,
      "ảy": 1783,
      "ột": 1784,
      "ngo": 1785,
      "ngôi": 1786,
      "chung": 1787,
      "chim": 1788,
      "chán": 1789,
      "chào": 1790,
      "khai": 1791,
      "khiển": 1792,
      "thiêng": 1793,
      "hoàng": 1794,
      "mộc": 1795,
      "tein": 1796,
      "thịt": 1797,
      "trẻo": 1798,
      "đậu": 1799,
      "39chọn": 1800,
      "ail": 1801,
      "Trong": 1802,
      "dưới": 1803,
      "chuông": 1804,
      "taxi": 1805,
      "liền": 1806,
      "Thay": 1807,
      "rock": 1808,
      "suất": 1809,
      "taupe": 1810,
      "0gì": 1811,
      "1sắc": 1812,
      "133": 1813,
      "144": 1814,
      "155": 1815,
      "166": 1816,
      "211": 1817,
      "233": 1818,
      "244": 1819,
      "255": 1820,
      "266": 1821,
      "3chủ": 1822,
      "311": 1823,
      "344": 1824,
      "355": 1825,
      "366": 1826,
      "411": 1827,
      "433": 1828,
      "455": 1829,
      "466": 1830,
      "5sự": 1831,
      "511": 1832,
      "533": 1833,
      "544": 1834,
      "566": 1835,
      "611": 1836,
      "633": 1837,
      "644": 1838,
      "655": 1839,
      "6phố": 1840,
      "7sắc": 1841,
      "8gì": 1842,
      "9gì": 1843,
      "Hal": 1844,
      "Re": 1845,
      "Tông": 1846,
      "ce": 1847,
      "cáp": 1848,
      "cập": 1849,
      "cuối": 1850,
      "gala": 1851,
      "hà": 1852,
      "hải": 1853,
      "lơ": 1854,
      "lâu": 1855,
      "lav": 1856,
      "mệt": 1857,
      "nản": 1858,
      "nấu": 1859,
      "rốt": 1860,
      "tây": 1861,
      "tiệm": 1862,
      "tùy": 1863,
      "tail": 1864,
      "vậy": 1865,
      "xo": 1866,
      "xung": 1867,
      "xấu": 1868,
      "Âu": 1869,
      "đai": 1870,
      "đạp": 1871,
      "ấc": 1872,
      "ắp": 1873,
      "ụp": 1874,
      "thờ": 1875,
      "thấp": 1876,
      "thiệp": 1877,
      "thập": 1878,
      "thánh": 1879,
      "chữa": 1880,
      "chụp": 1881,
      "trại": 1882,
      "triết": 1883,
      "giấc": 1884,
      "pháp": 1885,
      "phớt": 1886,
      "phạm": 1887,
      "khung": 1888,
      "hop": 1889,
      "tiế": 1890,
      "lowe": 1891,
      "19nào": 1892,
      "viêm": 1893,
      "135": 1894,
      "13không": 1895,
      "141": 1896,
      "143": 1897,
      "145": 1898,
      "146": 1899,
      "151": 1900,
      "15không": 1901,
      "163": 1902,
      "chỉnh": 1903,
      "từng": 1904,
      "khuẩn": 1905,
      "Trung": 1906,
      "Tránh": 1907,
      "cock": 1908,
      "alla": 1909,
      "dịp": 1910,
      "tuệ": 1911,
      "canxi": 1912,
      "hỗn": 1913,
      "omega": 1914,
      "kém": 1915,
      "ngoại": 1916,
      "Hallowe": 1917,
      "cocktail": 1918,
      "Halloween": 1919,
      "0màu": 1920,
      "0sự": 1921,
      "0sắc": 1922,
      "1dùng": 1923,
      "1chủ": 1924,
      "2chủ": 1925,
      "234": 1926,
      "235": 1927,
      "236": 1928,
      "246": 1929,
      "245": 1930,
      "256": 1931,
      "4chủ": 1932,
      "4cổ": 1933,
      "434": 1934,
      "435": 1935,
      "436": 1936,
      "5chủ": 1937,
      "534": 1938,
      "535": 1939,
      "536": 1940,
      "546": 1941,
      "545": 1942,
      "6trong": 1943,
      "6thuật": 1944,
      "634": 1945,
      "635": 1946,
      "636": 1947,
      "646": 1948,
      "645": 1949,
      "656": 1950,
      "7chọn": 1951,
      "9dùng": 1952,
      "Ang": 1953,
      "Blu": 1954,
      "Man": 1955,
      "Nam": 1956,
      "Nude": 1957,
      "Việt": 1958,
      "ac": 1959,
      "aco": 1960,
      "axi": 1961,
      "cùng": 1962,
      "cúc": 1963,
      "cốc": 1964,
      "dạ": 1965,
      "fan": 1966,
      "hương": 1967,
      "hảo": 1968,
      "hạt": 1969,
      "hưng": 1970,
      "hand": 1971,
      "kêu": 1972,
      "ly": 1973,
      "lan": 1974,
      "na": 1975,
      "nỗ": 1976,
      "niên": 1977,
      "nằm": 1978,
      "ote": 1979,
      "rd": 1980,
      "ss": 1981,
      "sĩ": 1982,
      "sẵ": 1983,
      "son": 1984,
      "sta": 1985,
      "sea": 1986,
      "sắp": 1987,
      "tất": 1988,
      "tiểu": 1989,
      "ua": 1990,
      "ustic": 1991,
      "vặt": 1992,
      "xử": 1993,
      "²⁺).": 1994,
      "ít": 1995,
      "Đông": 1996,
      "Đây": 1997,
      "đế": 1998,
      "đủ": 1999,
      "đọng": 2000,
      "điệu": 2001,
      "ngũ": 2002,
      "ngây": 2003,
      "ngẫm": 2004,
      "thụ": 2005,
      "nhờ": 2006,
      "nhắc": 2007,
      "nhám": 2008,
      "nhiệm": 2009,
      "chãi": 2010,
      "chày": 2011,
      "chester": 2012,
      "tro": 2013,
      "trì": 2014,
      "trợ": 2015,
      "trữ": 2016,
      "trôi": 2017,
      "trống": 2018,
      "gistic": 2019,
      "khói": 2020,
      "tiềm": 2021,
      "ter": 2022,
      "logistic": 2023,
      "bộcảm": 2024,
      "1980": 2025,
      "18trong": 2026,
      "57không": 2027,
      "131": 2028,
      "134": 2029,
      "153": 2030,
      "161": 2031,
      "165": 2032,
      "Chel": 2033,
      "beta": 2034,
      "56không": 2035,
      "ina": 2036,
      "dio": 2037,
      "43chọn": 2038,
      "Los": 2039,
      "vịt": 2040,
      "tasy": 2041,
      "liêng": 2042,
      "made": 2043,
      "musta": 2044,
      "toán": 2045,
      "môn": 2046,
      "eles": 2047,
      "hip": 2048,
      "riêng": 2049,
      "ston": 2050,
      "carote": 2051,
      "khuyên": 2052,
      "phía": 2053,
      "Boston": 2054,
      "Hoa": 2055,
      "hãng": 2056,
      "xoăn": 2057,
      "tiếng": 2058,
      "Angeles": 2059,
      "Blue": 2060,
      "Manchester": 2061,
      "acoustic": 2062,
      "axit": 2063,
      "fantasy": 2064,
      "handmade": 2065,
      "sẵn": 2066,
      "logistics": 2067,
      "Chelsea": 2068,
      "mustard": 2069,
      "carotene": 2070,
      "0nên": 2071,
      "0dùng": 2072,
      "0với": 2073,
      "1trong": 2074,
      "1phố": 2075,
      "2hiện": 2076,
      "2thuật": 2077,
      "216": 2078,
      "3nên": 2079,
      "313": 2080,
      "4và": 2081,
      "4sắc": 2082,
      "4chọn": 2083,
      "4với": 2084,
      "4đại": 2085,
      "4nghệ": 2086,
      "5nên": 2087,
      "5hiện": 2088,
      "5dùng": 2089,
      "5chọn": 2090,
      "5gian": 2091,
      "6hiện": 2092,
      "6gì": 2093,
      "6chủ": 2094,
      "6hội": 2095,
      "7dùng": 2096,
      "7phẩm": 2097,
      "7nghệ": 2098,
      "7phòng": 2099,
      "7điển": 2100,
      "8sắc": 2101,
      "8dùng": 2102,
      "9sắc": 2103,
      "9dụng": 2104,
      "9chọn": 2105,
      "9với": 2106,
      "9phố": 2107,
      "Arg": 2108,
      "Bản": 2109,
      "Bar": 2110,
      "Cổ": 2111,
      "Cel": 2112,
      "Fi": 2113,
      "Hy": 2114,
      "Hea": 2115,
      "Lựa": 2116,
      "Lạp": 2117,
      "Mỹ": 2118,
      "Ne": 2119,
      "Nó": 2120,
      "Rome": 2121,
      "SB": 2122,
      "San": 2123,
      "USB": 2124,
      "Wi": 2125,
      "Xu": 2126,
      "apo": 2127,
      "by": 2128,
      "bồ": 2129,
      "bụ": 2130,
      "bách": 2131,
      "balla": 2132,
      "ca": 2133,
      "ci": 2134,
      "cấm": 2135,
      "cánh": 2136,
      "cướ": 2137,
      "cồn": 2138,
      "dí": 2139,
      "dỏ": 2140,
      "dáng": 2141,
      "den": 2142,
      "gr": 2143,
      "gan": 2144,
      "gay": 2145,
      "hủ": 2146,
      "hắc": 2147,
      "ian": 2148,
      "kiệm": 2149,
      "kar": 2150,
      "ld": 2151,
      "ll": 2152,
      "lõ": 2153,
      "lối": 2154,
      "lester": 2155,
      "mạ": 2156,
      "men": 2157,
      "mảnh": 2158,
      "ninh": 2159,
      "ot": 2160,
      "oth": 2161,
      "oliu": 2162,
      "pro": 2163,
      "ptic": 2164,
      "pur": 2165,
      "pic": 2166,
      "ry": 2167,
      "răng": 2168,
      "rệt": 2169,
      "sơ": 2170,
      "sổ": 2171,
      "sen": 2172,
      "ssi": 2173,
      "săn": 2174,
      "sóng": 2175,
      "sco": 2176,
      "sala": 2177,
      "ts": 2178,
      "tật": 2179,
      "tổn": 2180,
      "vẽ": 2181,
      "vương": 2182,
      "vùng": 2183,
      "xế": 2184,
      "xác": 2185,
      "xách": 2186,
      "xét": 2187,
      "yptic": 2188,
      "áy": 2189,
      "đợi": 2190,
      "đúc": 2191,
      "đau": 2192,
      "đúng": 2193,
      "đặt": 2194,
      "ạy": 2195,
      "ặp": 2196,
      "ẹn": 2197,
      "ừa": 2198,
      "⁻).": 2199,
      "ngược": 2200,
      "ngăm": 2201,
      "thợ": 2202,
      "thác": 2203,
      "thây": 2204,
      "thuy": 2205,
      "thắng": 2206,
      "thiệu": 2207,
      "nha": 2208,
      "nhấp": 2209,
      "nhằm": 2210,
      "nhảy": 2211,
      "nháy": 2212,
      "chợ": 2213,
      "chiên": 2214,
      "chấp": 2215,
      "chấn": 2216,
      "chạy": 2217,
      "tráng": 2218,
      "trách": 2219,
      "giận": 2220,
      "giằng": 2221,
      "pha": 2222,
      "phủ": 2223,
      "khóa": 2224,
      "cholester": 2225,
      "xanhđược": 2226,
      "antho": 2227,
      "anin": 2228,
      "quản": 2229,
      "ami": 2230,
      "làgiác": 2231,
      "làlãng": 2232,
      "sửa": 2233,
      "uốc": 2234,
      "nhạy": 2235,
      "aoke": 2236,
      "entin": 2237,
      "ende": 2238,
      "Bạnnhững": 2239,
      "lona": 2240,
      "bộtạo": 2241,
      "10không": 2242,
      "60không": 2243,
      "32trong": 2244,
      "32không": 2245,
      "17không": 2246,
      "17nên": 2247,
      "37nào": 2248,
      "47nào": 2249,
      "47không": 2250,
      "49không": 2251,
      "50chọn": 2252,
      "57nào": 2253,
      "57nên": 2254,
      "67không": 2255,
      "69chọn": 2256,
      "tốc": 2257,
      "khỏi": 2258,
      "post": 2259,
      "oni": 2260,
      "onli": 2261,
      "11không": 2262,
      "33màu": 2263,
      "44thiết": 2264,
      "55chọn": 2265,
      "136": 2266,
      "154": 2267,
      "164": 2268,
      "35không": 2269,
      "hồn": 2270,
      "chia": 2271,
      "31nào": 2272,
      "31không": 2273,
      "41không": 2274,
      "63nào": 2275,
      "63thiết": 2276,
      "25nào": 2277,
      "25không": 2278,
      "61nên": 2279,
      "chua": 2280,
      "80không": 2281,
      "89trong": 2282,
      "tuyết": 2283,
      "04chọn": 2284,
      "tooth": 2285,
      "borg": 2286,
      "boss": 2287,
      "Nhật": 2288,
      "retro": 2289,
      "ruột": 2290,
      "trat": 2291,
      "khuyết": 2292,
      "Milan": 2293,
      "Miami": 2294,
      "cyanin": 2295,
      "cyborg": 2296,
      "calyptic": 2297,
      "nitrat": 2298,
      "Red": 2299,
      "celona": 2300,
      "lavende": 2301,
      "Bluetooth": 2302,
      "Argentin": 2303,
      "Barcelona": 2304,
      "Celtic": 2305,
      "Heat": 2306,
      "New": 2307,
      "apocalyptic": 2308,
      "bồi": 2309,
      "ballad": 2310,
      "cướp": 2311,
      "dỏm": 2312,
      "gram": 2313,
      "hủy": 2314,
      "karaoke": 2315,
      "menu": 2316,
      "protein": 2317,
      "salad": 2318,
      "thuyết": 2319,
      "cholesterol": 2320,
      "anthocyanin": 2321,
      "online": 2322,
      "lavender": 2323,
      "Argentina": 2324,
      "anthocyanins": 2325,
      "\",": 2326,
      "0tạo": 2327,
      "0trong": 2328,
      "0gian": 2329,
      "0trang": 2330,
      "0thuật": 2331,
      "0này": 2332,
      "1nên": 2333,
      "1đại": 2334,
      "1nghệ": 2335,
      "1nhiên": 2336,
      "1thuật": 2337,
      "1thao": 2338,
      "1này": 2339,
      "1khỏe": 2340,
      "1đường": 2341,
      "2nào": 2342,
      "2sắc": 2343,
      "2nên": 2344,
      "2phòng": 2345,
      "2nghiệp": 2346,
      "2sinh": 2347,
      "2đồng": 2348,
      "254": 2349,
      "265": 2350,
      "264": 2351,
      "2tuyến": 2352,
      "3và": 2353,
      "3hiện": 2354,
      "3dụng": 2355,
      "3đại": 2356,
      "3nghệ": 2357,
      "3này": 2358,
      "315": 2359,
      "3đường": 2360,
      "3cộng": 2361,
      "4sự": 2362,
      "4kế": 2363,
      "4dùng": 2364,
      "4nghiệp": 2365,
      "4nhạc": 2366,
      "4đồng": 2367,
      "4phố": 2368,
      "5và": 2369,
      "5sắc": 2370,
      "5thiết": 2371,
      "5phẩm": 2372,
      "5với": 2373,
      "5này": 2374,
      "5tượng": 2375,
      "6dùng": 2376,
      "6phẩm": 2377,
      "6chọn": 2378,
      "6với": 2379,
      "6gian": 2380,
      "6khách": 2381,
      "654": 2382,
      "7với": 2383,
      "7nhiên": 2384,
      "7chủ": 2385,
      "8nên": 2386,
      "8dụng": 2387,
      "8chọn": 2388,
      "8với": 2389,
      "8nghệ": 2390,
      "8chủ": 2391,
      "8em": 2392,
      "9phẩm": 2393,
      "9chủ": 2394,
      "An": 2395,
      "B6": 2396,
      "Be": 2397,
      "Bạc": 2398,
      "CM": 2399,
      "La": 2400,
      "Ma": 2401,
      "Mặc": 2402,
      "Mua": 2403,
      "Nước": 2404,
      "Se": 2405,
      "Sox": 2406,
      "Uni": 2407,
      "Việc": 2408,
      "YK": 2409,
      "az": 2410,
      "bè": 2411,
      "bơ": 2412,
      "bờ": 2413,
      "bên": 2414,
      "bông": 2415,
      "bối": 2416,
      "bào": 2417,
      "bina": 2418,
      "cú": 2419,
      "cỏ": 2420,
      "cố": 2421,
      "cái": 2422,
      "cứng": 2423,
      "dy": 2424,
      "dù": 2425,
      "dại": 2426,
      "dro": 2427,
      "er": 2428,
      "fa": 2429,
      "gọn": 2430,
      "gấp": 2431,
      "hu": 2432,
      "hậ": 2433,
      "hết": 2434,
      "hãi": 2435,
      "id": 2436,
      "jaz": 2437,
      "ký": 2438,
      "kiể": 2439,
      "ló": 2440,
      "lự": 2441,
      "lang": 2442,
      "lùng": 2443,
      "lấy": 2444,
      "lla": 2445,
      "mong": 2446,
      "mắc": 2447,
      "mỗi": 2448,
      "mượt": 2449,
      "nu": 2450,
      "nở": 2451,
      "nồng": 2452,
      "oải": 2453,
      "rác": 2454,
      "rắn": 2455,
      "sỡ": 2456,
      "sặc": 2457,
      "suố": 2458,
      "sốc": 2459,
      "suối": 2460,
      "tị": 2461,
      "tàu": 2462,
      "tao": 2463,
      "tán": 2464,
      "tộc": 2465,
      "um": 2466,
      "vở": 2467,
      "việt": 2468,
      "xé": 2469,
      "úi": 2470,
      "Đức": 2471,
      "đền": 2472,
      "đóng": 2473,
      "đãi": 2474,
      "đói": 2475,
      "đạm": 2476,
      "ẫu": 2477,
      "ậm": 2478,
      "ịp": 2479,
      "ớp": 2480,
      "ngăn": 2481,
      "thải": 2482,
      "nho": 2483,
      "nhút": 2484,
      "nhịp": 2485,
      "chật": 2486,
      "chội": 2487,
      "chậm": 2488,
      "trộn": 2489,
      "phóng": 2490,
      "kháng": 2491,
      "khán": 2492,
      "khớp": 2493,
      "chogiác": 2494,
      "kếtrọng": 2495,
      "quất": 2496,
      "nghe": 2497,
      "tion": 2498,
      "ted": 2499,
      "nghệcảm": 2500,
      "nhẹn": 2501,
      "10nghệ": 2502,
      "30màu": 2503,
      "30chọn": 2504,
      "19thiết": 2505,
      "19chọn": 2506,
      "12không": 2507,
      "12phẩm": 2508,
      "52thiết": 2509,
      "52chọn": 2510,
      "18không": 2511,
      "37không": 2512,
      "37nên": 2513,
      "37chọn": 2514,
      "38màu": 2515,
      "38trong": 2516,
      "39nào": 2517,
      "47chọn": 2518,
      "47thuật": 2519,
      "48nào": 2520,
      "48không": 2521,
      "48chọn": 2522,
      "49nào": 2523,
      "49chọn": 2524,
      "49điển": 2525,
      "50không": 2526,
      "62trong": 2527,
      "62phẩm": 2528,
      "577": 2529,
      "579": 2530,
      "58không": 2531,
      "58phòng": 2532,
      "67chọn": 2533,
      "68thiết": 2534,
      "69không": 2535,
      "quyện": 2536,
      "poly": 2537,
      "ono": 2538,
      "huynh": 2539,
      "11màu": 2540,
      "11nên": 2541,
      "33nào": 2542,
      "33nên": 2543,
      "55không": 2544,
      "27không": 2545,
      "29không": 2546,
      "13nào": 2547,
      "14màu": 2548,
      "14không": 2549,
      "14chọn": 2550,
      "14công": 2551,
      "156": 2552,
      "15nào": 2553,
      "15nên": 2554,
      "15phẩm": 2555,
      "giai": 2556,
      "Chúng": 2557,
      "màn": 2558,
      "34trong": 2559,
      "35nên": 2560,
      "35chọn": 2561,
      "buộc": 2562,
      "burg": 2563,
      "46không": 2564,
      "45không": 2565,
      "45phẩm": 2566,
      "45chọn": 2567,
      "56gian": 2568,
      "70trong": 2569,
      "70thao": 2570,
      "54chọn": 2571,
      "65nào": 2572,
      "65trong": 2573,
      "31trong": 2574,
      "31chọn": 2575,
      "43không": 2576,
      "26phẩm": 2577,
      "51thiết": 2578,
      "61không": 2579,
      "23không": 2580,
      "trạngmang": 2581,
      "trạngvẻ": 2582,
      "77nào": 2583,
      "77không": 2584,
      "78trong": 2585,
      "lớpkhí": 2586,
      "01không": 2587,
      "07trong": 2588,
      "09nào": 2589,
      "09chọn": 2590,
      "73không": 2591,
      "73thiết": 2592,
      "81nên": 2593,
      "85trong": 2594,
      "95trong": 2595,
      "75chọn": 2596,
      "76không": 2597,
      "91nào": 2598,
      "91thiết": 2599,
      "Thêm": 2600,
      "Thiết": 2601,
      "máu": 2602,
      "ckdro": 2603,
      "late": 2604,
      "đoạn": 2605,
      "backdro": 2606,
      "duyệt": 2607,
      "ork": 2608,
      "ort": 2609,
      "hiếu": 2610,
      "lutein": 2611,
      "kers": 2612,
      "cardio": 2613,
      "sofa": 2614,
      "undy": 2615,
      "CMYK": 2616,
      "Lakers": 2617,
      "United": 2618,
      "hậu": 2619,
      "jazz": 2620,
      "kiểm": 2621,
      "lót": 2622,
      "lựu": 2623,
      "nuôi": 2624,
      "suốt": 2625,
      "tịnh": 2626,
      "burgundy": 2627,
      "backdrop": 2628,
      "\"?": 2629,
      ")?": 2630,
      "0và": 2631,
      "0các": 2632,
      "0thiết": 2633,
      "0phẩm": 2634,
      "0công": 2635,
      "0quảng": 2636,
      "0chủ": 2637,
      "0phòng": 2638,
      "0nghiệp": 2639,
      "0thời": 2640,
      "1và": 2641,
      "1sự": 2642,
      "1thiết": 2643,
      "1vàng": 2644,
      "1phẩm": 2645,
      "1là": 2646,
      "1sử": 2647,
      "1với": 2648,
      "1trang": 2649,
      "1trọng": 2650,
      "1ấm": 2651,
      "1sức": 2652,
      "1nhân": 2653,
      "1đồ": 2654,
      "1học": 2655,
      "1hội": 2656,
      "1loại": 2657,
      "1cận": 2658,
      "1dưỡng": 2659,
      "1đâu": 2660,
      "2và": 2661,
      "2sự": 2662,
      "2dụng": 2663,
      "2dùng": 2664,
      "2phẩm": 2665,
      "2chọn": 2666,
      "2công": 2667,
      "2nghệ": 2668,
      "2website": 2669,
      "2thao": 2670,
      "2hiệu": 2671,
      "2nhạc": 2672,
      "2này": 2673,
      "2hội": 2674,
      "2hóa": 2675,
      "2vững": 2676,
      "2điểm": 2677,
      "2điện": 2678,
      "3giác": 2679,
      "3dùng": 2680,
      "3gian": 2681,
      "3như": 2682,
      "3làm": 2683,
      "3kiện": 2684,
      "3thuật": 2685,
      "3những": 2686,
      "3phòng": 2687,
      "3cổ": 2688,
      "3sức": 2689,
      "3hội": 2690,
      "3loại": 2691,
      "3nội": 2692,
      "3đồng": 2693,
      "3hình": 2694,
      "3ngoài": 2695,
      "3phố": 2696,
      "3tử": 2697,
      "3đáo": 2698,
      "4giác": 2699,
      "4thiết": 2700,
      "4dụng": 2701,
      "4sử": 2702,
      "4cáo": 2703,
      "4tự": 2704,
      "4người": 2705,
      "4sống": 2706,
      "4này": 2707,
      "4hội": 2708,
      "415": 2709,
      "4đường": 2710,
      "5cho": 2711,
      "5trong": 2712,
      "5kế": 2713,
      "5ẩm": 2714,
      "5thị": 2715,
      "5đại": 2716,
      "5nhiên": 2717,
      "5những": 2718,
      "5phòng": 2719,
      "5thư": 2720,
      "5trung": 2721,
      "5lịch": 2722,
      "5mùa": 2723,
      "5nhạc": 2724,
      "5học": 2725,
      "5hội": 2726,
      "5hóa": 2727,
      "5vững": 2728,
      "5tiếp": 2729,
      "6giác": 2730,
      "6nên": 2731,
      "6kế": 2732,
      "6động": 2733,
      "6như": 2734,
      "6công": 2735,
      "6đại": 2736,
      "6nghệ": 2737,
      "6web": 2738,
      "6phòng": 2739,
      "6nghiệp": 2740,
      "6này": 2741,
      "6phim": 2742,
      "6hấp": 2743,
      "6thông": 2744,
      "6huyền": 2745,
      "7hiện": 2746,
      "7gì": 2747,
      "7gian": 2748,
      "7áo": 2749,
      "7cáo": 2750,
      "7kiện": 2751,
      "7giãn": 2752,
      "7nghiệp": 2753,
      "7thương": 2754,
      "7em": 2755,
      "7này": 2756,
      "7hội": 2757,
      "7đồng": 2758,
      "7cộng": 2759,
      "7mạch": 2760,
      "7ngày": 2761,
      "8trong": 2762,
      "8hiện": 2763,
      "8phẩm": 2764,
      "8dễ": 2765,
      "8những": 2766,
      "8cổ": 2767,
      "8nghiệp": 2768,
      "8mùa": 2769,
      "8tế": 2770,
      "8này": 2771,
      "8hội": 2772,
      "822": 2773,
      "8đồng": 2774,
      "8đông": 2775,
      "9cho": 2776,
      "9hiện": 2777,
      "9gian": 2778,
      "9động": 2779,
      "9công": 2780,
      "9trang": 2781,
      "9thuật": 2782,
      "9những": 2783,
      "9điển": 2784,
      "9hơn": 2785,
      "9tế": 2786,
      "9này": 2787,
      "9khỏe": 2788,
      "9hội": 2789,
      "9tình": 2790,
      "9đông": 2791,
      "AC": 2792,
      "AI": 2793,
      "AS": 2794,
      "Anh": 2795,
      "Ba": 2796,
      "Bu": 2797,
      "Ban": 2798,
      "Bra": 2799,
      "Bánh": 2800,
      "B12": 2801,
      "Bầu": 2802,
      "Bla": 2803,
      "Bor": 2804,
      "Ci": 2805,
      "Co": 2806,
      "Cu": 2807,
      "Do": 2808,
      "Dalla": 2809,
      "Dort": 2810,
      "FC": 2811,
      "Fr": 2812,
      "GB": 2813,
      "Gỗ": 2814,
      "Gol": 2815,
      "Hệ": 2816,
      "Hiện": 2817,
      "In": 2818,
      "Li": 2819,
      "Ly": 2820,
      "Mùa": 2821,
      "Một": 2822,
      "NO": 2823,
      "Năm": 2824,
      "Ol": 2825,
      "Pa": 2826,
      "Por": 2827,
      "Quốc": 2828,
      "Ro": 2829,
      "RGB": 2830,
      "Sco": 2831,
      "Sta": 2832,
      "Scan": 2833,
      "Spur": 2834,
      "Tây": 2835,
      "Tot": 2836,
      "UI": 2837,
      "Val": 2838,
      "War": 2839,
      "Yan": 2840,
      "York": 2841,
      "Ze": 2842,
      "ago": 2843,
      "asen": 2844,
      "bi": 2845,
      "bá": 2846,
      "bò": 2847,
      "bặ": 2848,
      "băng": 2849,
      "blo": 2850,
      "bọc": 2851,
      "bạch": 2852,
      "bẩn": 2853,
      "bước": 2854,
      "bởi": 2855,
      "bro": 2856,
      "cằ": 2857,
      "cám": 2858,
      "clo": 2859,
      "cống": 2860,
      "cơn": 2861,
      "cát": 2862,
      "cay": 2863,
      "cẩn": 2864,
      "cắt": 2865,
      "cốt": 2866,
      "dứ": 2867,
      "danh": 2868,
      "dọn": 2869,
      "dần": 2870,
      "dội": 2871,
      "dẹp": 2872,
      "dge": 2873,
      "dứa": 2874,
      "dri": 2875,
      "dina": 2876,
      "ey": 2877,
      "eli": 2878,
      "fo": 2879,
      "fon": 2880,
      "fol": 2881,
      "flav": 2882,
      "gó": 2883,
      "gố": 2884,
      "gen": 2885,
      "gáp": 2886,
      "gga": 2887,
      "gói": 2888,
      "gừng": 2889,
      "gby": 2890,
      "hả": 2891,
      "ham": 2892,
      "hăng": 2893,
      "hối": 2894,
      "hái": 2895,
      "hem": 2896,
      "hiến": 2897,
      "hầu": 2898,
      "hôn": 2899,
      "hẹn": 2900,
      "il": 2901,
      "ium": 2902,
      "kèm": 2903,
      "kiềm": 2904,
      "kiểu": 2905,
      "lú": 2906,
      "lẫ": 2907,
      "lược": 2908,
      "lời": 2909,
      "lim": 2910,
      "lẫn": 2911,
      "lộng": 2912,
      "lin": 2913,
      "land": 2914,
      "lặp": 2915,
      "mù": 2916,
      "mổ": 2917,
      "mâu": 2918,
      "mọng": 2919,
      "mịch": 2920,
      "may": 2921,
      "mai": 2922,
      "mắn": 2923,
      "mar": 2924,
      "mme": 2925,
      "nd": 2926,
      "nth": 2927,
      "nỗi": 2928,
      "nảy": 2929,
      "ou": 2930,
      "pen": 2931,
      "pian": 2932,
      "rt": 2933,
      "rỗ": 2934,
      "rợ": 2935,
      "rùng": 2936,
      "rce": 2937,
      "rry": 2938,
      "sẻ": 2939,
      "sàng": 2940,
      "stu": 2941,
      "sel": 2942,
      "shi": 2943,
      "tẻ": 2944,
      "tân": 2945,
      "tắt": 2946,
      "tàn": 2947,
      "toni": 2948,
      "túi": 2949,
      "tland": 2950,
      "ussi": 2951,
      "vắng": 2952,
      "vẹn": 2953,
      "vừa": 2954,
      "ver": 2955,
      "wbo": 2956,
      "xan": 2957,
      "xao": 2958,
      "ys": 2959,
      "zea": 2960,
      "zil": 2961,
      "Đôi": 2962,
      "Đúng": 2963,
      "đỗ": 2964,
      "đem": 2965,
      "đua": 2966,
      "ậnh": 2967,
      "ặn": 2968,
      "ểng": 2969,
      "ỳnh": 2970,
      "₃⁻).": 2971,
      "ngại": 2972,
      "ngừa": 2973,
      "thọ": 2974,
      "thang": 2975,
      "than": 2976,
      "thận": 2977,
      "thẫm": 2978,
      "thôn": 2979,
      "thuốc": 2980,
      "nham": 2981,
      "nhát": 2982,
      "nhẫn": 2983,
      "nhắn": 2984,
      "nhậnh": 2985,
      "chạnh": 2986,
      "chấm": 2987,
      "chứng": 2988,
      "chẳng": 2989,
      "chướng": 2990,
      "vàquảng": 2991,
      "try": 2992,
      "trả": 2993,
      "trùng": 2994,
      "trọn": 2995,
      "trao": 2996,
      "trất": 2997,
      "triệu": 2998,
      "trận": 2999,
      "trạm": 3000,
      "giáng": 3001,
      "giục": 3002,
      "màucác": 3003,
      "pho": 3004,
      "phen": 3005,
      "phổi": 3006,
      "phot": 3007,
      "phẫu": 3008,
      "tạm": 3009,
      "khô": 3010,
      "khối": 3011,
      "khấu": 3012,
      "khốc": 3013,
      "chovà": 3014,
      "choco": 3015,
      "sựvà": 3016,
      "trongvới": 3017,
      "trongthị": 3018,
      "trongtinh": 3019,
      "thic": 3020,
      "thin": 3021,
      "cáccác": 3022,
      "anci": 3023,
      "ants": 3024,
      "nênnhiên": 3025,
      "quỷ": 3026,
      "quỹ": 3027,
      "quanh": 3028,
      "quân": 3029,
      "quay": 3030,
      "quạt": 3031,
      "hoạch": 3032,
      "ame": 3033,
      "amoni": 3034,
      "nghề": 3035,
      "mộtcác": 3036,
      "làáp": 3037,
      "vớimùa": 3038,
      "tiv": 3039,
      "ting": 3040,
      "camđược": 3041,
      "thuẫn": 3042,
      "tenham": 3043,
      "mangan": 3044,
      "enci": 3045,
      "nhạtthường": 3046,
      "nhưbìa": 3047,
      "thịmang": 3048,
      "ratho": 3049,
      "sine": 3050,
      "nghệtươi": 3051,
      "Bạnthể": 3052,
      "trọngthể": 3053,
      "vuikhông": 3054,
      "dễcách": 3055,
      "thìa": 3056,
      "chuyền": 3057,
      "chuyểng": 3058,
      "phòngvì": 3059,
      "cổng": 3060,
      "tinthể": 3061,
      "chuyênchuyên": 3062,
      "bột": 3063,
      "gold": 3064,
      "gothic": 3065,
      "10trong": 3066,
      "10thiết": 3067,
      "10dụng": 3068,
      "10phẩm": 3069,
      "10gì": 3070,
      "10chọn": 3071,
      "10nhạc": 3072,
      "10ngoài": 3073,
      "hàngdễ": 3074,
      "30không": 3075,
      "30dùng": 3076,
      "30gì": 3077,
      "30gian": 3078,
      "60nào": 3079,
      "60trong": 3080,
      "60nên": 3081,
      "60phòng": 3082,
      "19và": 3083,
      "19sắc": 3084,
      "19nên": 3085,
      "19gì": 3086,
      "19trang": 3087,
      "19quan": 3088,
      "12nào": 3089,
      "12thiết": 3090,
      "12gì": 3091,
      "12chọn": 3092,
      "12trang": 3093,
      "12học": 3094,
      "323": 3095,
      "32màu": 3096,
      "32nào": 3097,
      "32nghệ": 3098,
      "32phòng": 3099,
      "32này": 3100,
      "42D": 3101,
      "42màu": 3102,
      "42nào": 3103,
      "42không": 3104,
      "42nghệ": 3105,
      "52không": 3106,
      "52nên": 3107,
      "52gian": 3108,
      "52nghệ": 3109,
      "17nào": 3110,
      "17thiết": 3111,
      "17thuật": 3112,
      "18nào": 3113,
      "18gì": 3114,
      "37thiết": 3115,
      "37kế": 3116,
      "38không": 3117,
      "38game": 3118,
      "39màu": 3119,
      "39trong": 3120,
      "39không": 3121,
      "39gì": 3122,
      "39phòng": 3123,
      "39đường": 3124,
      "40thiết": 3125,
      "40thuật": 3126,
      "40điển": 3127,
      "40trời": 3128,
      "47dùng": 3129,
      "47phẩm": 3130,
      "47nghệ": 3131,
      "48màu": 3132,
      "48thiết": 3133,
      "48kế": 3134,
      "49tạo": 3135,
      "49trong": 3136,
      "49thao": 3137,
      "50thiết": 3138,
      "50kế": 3139,
      "50phẩm": 3140,
      "50gì": 3141,
      "50điểm": 3142,
      "62và": 3143,
      "62kế": 3144,
      "62mắt": 3145,
      "57màu": 3146,
      "57thể": 3147,
      "57phẩm": 3148,
      "57tập": 3149,
      "57trường": 3150,
      "58gì": 3151,
      "58chọn": 3152,
      "58về": 3153,
      "58thuật": 3154,
      "59trong": 3155,
      "59nên": 3156,
      "59kế": 3157,
      "59phẩm": 3158,
      "59học": 3159,
      "59hội": 3160,
      "59dục": 3161,
      "67màu": 3162,
      "67nên": 3163,
      "67thuật": 3164,
      "67học": 3165,
      "68và": 3166,
      "68trong": 3167,
      "68không": 3168,
      "68dùng": 3169,
      "68thực": 3170,
      "69màu": 3171,
      "69nào": 3172,
      "69trong": 3173,
      "69nên": 3174,
      "69của": 3175,
      "kháchấm": 3176,
      "cáchcác": 3177,
      "cáchtrọng": 3178,
      "cáchnhân": 3179,
      "pool": 3180,
      "port": 3181,
      "net": 3182,
      "lão": 3183,
      "xury": 3184,
      "bảotế": 3185,
      "22trong": 3186,
      "11nào": 3187,
      "11trong": 3188,
      "11hóa": 3189,
      "33trong": 3190,
      "33không": 3191,
      "33gì": 3192,
      "33chọn": 3193,
      "33dục": 3194,
      "44nào": 3195,
      "44không": 3196,
      "44phẩm": 3197,
      "44động": 3198,
      "44thuật": 3199,
      "44điển": 3200,
      "44phố": 3201,
      "55màu": 3202,
      "55sự": 3203,
      "55nào": 3204,
      "55trong": 3205,
      "55phẩm": 3206,
      "55trang": 3207,
      "66trong": 3208,
      "66không": 3209,
      "66thiết": 3210,
      "66gì": 3211,
      "66gian": 3212,
      "66công": 3213,
      "66hội": 3214,
      "66phố": 3215,
      "viết": 3216,
      "vian": 3217,
      "villa": 3218,
      "20trong": 3219,
      "20không": 3220,
      "20dụng": 3221,
      "20điển": 3222,
      "27nào": 3223,
      "27chọn": 3224,
      "28không": 3225,
      "29nào": 3226,
      "29nên": 3227,
      "29chọn": 3228,
      "vụnghiệp": 3229,
      "13sự": 3230,
      "13kế": 3231,
      "13gì": 3232,
      "13nghệ": 3233,
      "14nào": 3234,
      "14thiết": 3235,
      "14phẩm": 3236,
      "14gian": 3237,
      "14nghệ": 3238,
      "15thể": 3239,
      "15chọn": 3240,
      "15gian": 3241,
      "15thiện": 3242,
      "16cảm": 3243,
      "16sắc": 3244,
      "16không": 3245,
      "16gì": 3246,
      "16gian": 3247,
      "16nhiên": 3248,
      "Châu": 3249,
      "Chic": 3250,
      "tiệcxanh": 3251,
      "tiệclãng": 3252,
      "berry": 3253,
      "34màu": 3254,
      "34không": 3255,
      "34nên": 3256,
      "34gian": 3257,
      "34thái": 3258,
      "35nào": 3259,
      "35trong": 3260,
      "36màu": 3261,
      "36trong": 3262,
      "36không": 3263,
      "36này": 3264,
      "bus": 3265,
      "46thiết": 3266,
      "46chọn": 3267,
      "46nghệ": 3268,
      "45nào": 3269,
      "45thiết": 3270,
      "45kế": 3271,
      "45đẹp": 3272,
      "56dùng": 3273,
      "56phẩm": 3274,
      "56chọn": 3275,
      "56cáo": 3276,
      "56thao": 3277,
      "insu": 3278,
      "inter": 3279,
      "70không": 3280,
      "70cổ": 3281,
      "disco": 3282,
      "bịquá": 3283,
      "bịđang": 3284,
      "khoáng": 3285,
      "khoải": 3286,
      "54nào": 3287,
      "54không": 3288,
      "54thiết": 3289,
      "54nên": 3290,
      "54phẩm": 3291,
      "quýt": 3292,
      "chic": 3293,
      "65không": 3294,
      "65chọn": 3295,
      "31nên": 3296,
      "31thuật": 3297,
      "31trường": 3298,
      "64không": 3299,
      "64thiết": 3300,
      "64thông": 3301,
      "43thiết": 3302,
      "43kế": 3303,
      "43kiện": 3304,
      "53chọn": 3305,
      "53trang": 3306,
      "26trong": 3307,
      "26kế": 3308,
      "26dụng": 3309,
      "41trong": 3310,
      "41thiết": 3311,
      "41nên": 3312,
      "41chọn": 3313,
      "51không": 3314,
      "51nên": 3315,
      "51dùng": 3316,
      "63trong": 3317,
      "63không": 3318,
      "25trong": 3319,
      "25hơn": 3320,
      "61chọn": 3321,
      "61nghiệp": 3322,
      "Pháp": 3323,
      "24cho": 3324,
      "24trong": 3325,
      "24không": 3326,
      "24phẩm": 3327,
      "24gì": 3328,
      "23nên": 3329,
      "23chọn": 3330,
      "coun": 3331,
      "comme": 3332,
      "copen": 3333,
      "aland": 3334,
      "21nào": 3335,
      "21giác": 3336,
      "21không": 3337,
      "21thiết": 3338,
      "21nên": 3339,
      "21chọn": 3340,
      "21thuật": 3341,
      "tổng": 3342,
      "giảivẻ": 3343,
      "chuẩn": 3344,
      "chure": 3345,
      "bổng": 3346,
      "80thiết": 3347,
      "gas": 3348,
      "79nào": 3349,
      "79không": 3350,
      "79thiết": 3351,
      "79nên": 3352,
      "89không": 3353,
      "89nên": 3354,
      "77giác": 3355,
      "88không": 3356,
      "90không": 3357,
      "90thiết": 3358,
      "90chọn": 3359,
      "90hình": 3360,
      "99trong": 3361,
      "99không": 3362,
      "99chọn": 3363,
      "tuân": 3364,
      "tuần": 3365,
      "78kế": 3366,
      "78phẩm": 3367,
      "87nào": 3368,
      "97nào": 3369,
      "tuyên": 3370,
      "lio": 3371,
      "maratho": 3372,
      "00thiết": 3373,
      "00nên": 3374,
      "00dùng": 3375,
      "01thiết": 3376,
      "01kế": 3377,
      "02nên": 3378,
      "02gì": 3379,
      "04thiết": 3380,
      "05trong": 3381,
      "05nên": 3382,
      "06phẩm": 3383,
      "06trang": 3384,
      "06trọng": 3385,
      "07không": 3386,
      "07nên": 3387,
      "07chọn": 3388,
      "08trong": 3389,
      "08chọn": 3390,
      "09không": 3391,
      "09thiết": 3392,
      "09nghệ": 3393,
      "71nào": 3394,
      "71không": 3395,
      "71thiết": 3396,
      "71chọn": 3397,
      "71công": 3398,
      "72không": 3399,
      "73nào": 3400,
      "73nên": 3401,
      "73chọn": 3402,
      "81thiết": 3403,
      "83trong": 3404,
      "83không": 3405,
      "83nên": 3406,
      "83chọn": 3407,
      "83đồ": 3408,
      "83học": 3409,
      "84trong": 3410,
      "84không": 3411,
      "84thiết": 3412,
      "85chọn": 3413,
      "92nên": 3414,
      "95nào": 3415,
      "mund": 3416,
      "74trong": 3417,
      "74thiết": 3418,
      "75trong": 3419,
      "76thiết": 3420,
      "82thiết": 3421,
      "93thiết": 3422,
      "93nên": 3423,
      "94nào": 3424,
      "94thiết": 3425,
      "Thế": 3426,
      "nhiếp": 3427,
      "boho": 3428,
      "mốigia": 3429,
      "ympic": 3430,
      "Giants": 3431,
      "ors": 3432,
      "barium": 3433,
      "miền": 3434,
      "miêu": 3435,
      "EDM": 3436,
      "luxury": 3437,
      "ols": 3438,
      "kees": 3439,
      "keting": 3440,
      "riors": 3441,
      "sushi": 3442,
      "contra": 3443,
      "regga": 3444,
      "ruby": 3445,
      "rugby": 3446,
      "triễn": 3447,
      "Bohem": 3448,
      "Hots": 3449,
      "call": 3450,
      "hãy": 3451,
      "mịn": 3452,
      "soạn": 3453,
      "synth": 3454,
      "unk": 3455,
      "Real": 3456,
      "163bật": 3457,
      "action": 3458,
      "lycopen": 3459,
      "bụi": 3460,
      "bụng": 3461,
      "denim": 3462,
      "lls": 3463,
      "lõi": 3464,
      "lõng": 3465,
      "Celtics": 3466,
      "Antoni": 3467,
      "Madri": 3468,
      "Sevilla": 3469,
      "huỳnh": 3470,
      "ids": 3471,
      "polyphen": 3472,
      "onoids": 3473,
      "Bulls": 3474,
      "Banner": 3475,
      "Brazil": 3476,
      "Black": 3477,
      "Borussi": 3478,
      "City": 3479,
      "Cowbo": 3480,
      "Dodge": 3481,
      "Dallas": 3482,
      "Dortmund": 3483,
      "Franci": 3484,
      "Golden": 3485,
      "Inter": 3486,
      "Liver": 3487,
      "Lyon": 3488,
      "Olympic": 3489,
      "Pastel": 3490,
      "Porto": 3491,
      "Roma": 3492,
      "Scotland": 3493,
      "State": 3494,
      "Scandina": 3495,
      "Spurs": 3496,
      "Tottenham": 3497,
      "Valenci": 3498,
      "Warriors": 3499,
      "Yankees": 3500,
      "Zealand": 3501,
      "bặm": 3502,
      "blog": 3503,
      "brochure": 3504,
      "cằn": 3505,
      "dứt": 3506,
      "eyeli": 3507,
      "folio": 3508,
      "font": 3509,
      "folk": 3510,
      "flavonoids": 3511,
      "góp": 3512,
      "gốm": 3513,
      "lúa": 3514,
      "lẫy": 3515,
      "limou": 3516,
      "mùi": 3517,
      "marketing": 3518,
      "piano": 3519,
      "rỗng": 3520,
      "rợn": 3521,
      "studio": 3522,
      "selen": 3523,
      "xanthin": 3524,
      "zeaxanthin": 3525,
      "photpho": 3526,
      "chocolate": 3527,
      "amoniac": 3528,
      "chuyểngame": 3529,
      "portfolio": 3530,
      "Chicago": 3531,
      "insulin": 3532,
      "internet": 3533,
      "country": 3534,
      "commerce": 3535,
      "marathon": 3536,
      "contrast": 3537,
      "reggae": 3538,
      "Bohemian": 3539,
      "Hotspur": 3540,
      "lycopene": 3541,
      "Antonio": 3542,
      "Madrid": 3543,
      "polyphenols": 3544,
      "Borussia": 3545,
      "Cowboys": 3546,
      "Dodgers": 3547,
      "Francisco": 3548,
      "Liverpool": 3549,
      "Scandinavian": 3550,
      "Valencia": 3551,
      "eyeliner": 3552,
      "limousine": 3553
    },
    "merges": [
      [
        "n",
        "g"
      ],
      [
        "t",
        "h"
      ],
      [
        "à",
        "u"
      ],
      [
        "n",
        "h"
      ],
      [
        "c",
        "h"
      ],
      [
        "v",
        "à"
      ],
      [
        "t",
        "r"
      ],
      [
        "g",
        "i"
      ],
      [
        "m",
        "àu"
      ],
      [
        "M",
        "àu"
      ],
      [
        "á",
        "c"
      ],
      [
        "p",
        "h"
      ],
      [
        "t",
        "ạ"
      ],
      [
        "tạ",
        "o"
      ],
      [
        "k",
        "h"
      ],
      [
        "i",
        "ệ"
      ],
      [
        "ch",
        "o"
      ],
      [
        "ê",
        "n"
      ],
      [
        "c",
        "ả"
      ],
      [
        "ư",
        "ờ"
      ],
      [
        "n",
        "à"
      ],
      [
        "cả",
        "m"
      ],
      [
        "s",
        "ự"
      ],
      [
        "ô",
        "ng"
      ],
      [
        "ườ",
        "ng"
      ],
      [
        "nà",
        "o"
      ],
      [
        "a",
        "nh"
      ],
      [
        "th",
        "ể"
      ],
      [
        "gi",
        "ác"
      ],
      [
        "th",
        "ường"
      ],
      [
        "ế",
        "t"
      ],
      [
        "o",
        "ng"
      ],
      [
        "iệ",
        "n"
      ],
      [
        "ắ",
        "c"
      ],
      [
        "s",
        "ắc"
      ],
      [
        "tr",
        "ong"
      ],
      [
        "c",
        "ó"
      ],
      [
        "ư",
        "ơ"
      ],
      [
        "ợ",
        "p"
      ],
      [
        "h",
        "ợp"
      ],
      [
        "x",
        "anh"
      ],
      [
        "kh",
        "ông"
      ],
      [
        "ô",
        "i"
      ],
      [
        "th",
        "i"
      ],
      [
        "a",
        "ng"
      ],
      [
        "c",
        "ác"
      ],
      [
        "đ",
        "ể"
      ],
      [
        "ớ",
        "i"
      ],
      [
        "a",
        "n"
      ],
      [
        "thi",
        "ết"
      ],
      [
        "n",
        "ên"
      ],
      [
        "ạ",
        "i"
      ],
      [
        "k",
        "ế"
      ],
      [
        "và",
        "ng"
      ],
      [
        "ươ",
        "ng"
      ],
      [
        "h",
        "iện"
      ],
      [
        "d",
        "ụ"
      ],
      [
        "ư",
        "ợ"
      ],
      [
        "q",
        "u"
      ],
      [
        "ù",
        "ng"
      ],
      [
        "ẩ",
        "m"
      ],
      [
        "h",
        "o"
      ],
      [
        "i",
        "ể"
      ],
      [
        "dụ",
        "ng"
      ],
      [
        "d",
        "ùng"
      ],
      [
        "ph",
        "ẩm"
      ],
      [
        "T",
        "ôi"
      ],
      [
        "a",
        "m"
      ],
      [
        "ng",
        "h"
      ],
      [
        "m",
        "ộ"
      ],
      [
        "ặ",
        "c"
      ],
      [
        "l",
        "á"
      ],
      [
        "ậ",
        "t"
      ],
      [
        "mộ",
        "t"
      ],
      [
        "g",
        "ì"
      ],
      [
        "â",
        "y"
      ],
      [
        "l",
        "à"
      ],
      [
        "ả",
        "n"
      ],
      [
        "s",
        "ử"
      ],
      [
        "ọ",
        "n"
      ],
      [
        "ho",
        "ặc"
      ],
      [
        "ch",
        "ọn"
      ],
      [
        "ph",
        "ù"
      ],
      [
        "u",
        "y"
      ],
      [
        "v",
        "ới"
      ],
      [
        "ượ",
        "c"
      ],
      [
        "c",
        "ây"
      ],
      [
        "đ",
        "ược"
      ],
      [
        "ú",
        "p"
      ],
      [
        "gi",
        "úp"
      ],
      [
        "ắ",
        "ng"
      ],
      [
        "í",
        "ch"
      ],
      [
        "d",
        "ương"
      ],
      [
        "á",
        "ng"
      ],
      [
        "ạ",
        "n"
      ],
      [
        "đ",
        "ỏ"
      ],
      [
        "s",
        "ẽ"
      ],
      [
        "tr",
        "ắng"
      ],
      [
        "u",
        "ố"
      ],
      [
        "đ",
        "ộ"
      ],
      [
        "nh",
        "ạ"
      ],
      [
        "gi",
        "an"
      ],
      [
        "ế",
        "n"
      ],
      [
        "i",
        "ên"
      ],
      [
        "ă",
        "ng"
      ],
      [
        "s",
        "áng"
      ],
      [
        "s",
        "ản"
      ],
      [
        "t",
        "ươ"
      ],
      [
        "tươ",
        "i"
      ],
      [
        "a",
        "o"
      ],
      [
        "uố",
        "n"
      ],
      [
        "t",
        "i"
      ],
      [
        "t",
        "í"
      ],
      [
        "ủ",
        "a"
      ],
      [
        "c",
        "ủa"
      ],
      [
        "m",
        "uốn"
      ],
      [
        "c",
        "am"
      ],
      [
        "th",
        "u"
      ],
      [
        "ấ",
        "t"
      ],
      [
        "à",
        "ng"
      ],
      [
        "t",
        "e"
      ],
      [
        "á",
        "m"
      ],
      [
        "k",
        "ết"
      ],
      [
        "ồ",
        "ng"
      ],
      [
        "â",
        "u"
      ],
      [
        "â",
        "n"
      ],
      [
        "m",
        "ang"
      ],
      [
        "b",
        "iể"
      ],
      [
        "e",
        "n"
      ],
      [
        "á",
        "o"
      ],
      [
        "nhạ",
        "t"
      ],
      [
        "ổ",
        "i"
      ],
      [
        "độ",
        "ng"
      ],
      [
        "l",
        "ại"
      ],
      [
        "nh",
        "ư"
      ],
      [
        "th",
        "ị"
      ],
      [
        "r",
        "a"
      ],
      [
        "th",
        "ích"
      ],
      [
        "biể",
        "u"
      ],
      [
        "ì",
        "nh"
      ],
      [
        "c",
        "ông"
      ],
      [
        "đ",
        "en"
      ],
      [
        "ợ",
        "i"
      ],
      [
        "đ",
        "ại"
      ],
      [
        "là",
        "m"
      ],
      [
        "ạ",
        "nh"
      ],
      [
        "s",
        "i"
      ],
      [
        "ngh",
        "ệ"
      ],
      [
        "B",
        "ạn"
      ],
      [
        "n",
        "ăng"
      ],
      [
        "ọ",
        "ng"
      ],
      [
        "g",
        "ợi"
      ],
      [
        "x",
        "ám"
      ],
      [
        "tr",
        "ang"
      ],
      [
        "tr",
        "ọng"
      ],
      [
        "h",
        "ồng"
      ],
      [
        "ầ",
        "n"
      ],
      [
        "ề",
        "n"
      ],
      [
        "ự",
        "c"
      ],
      [
        "u",
        "i"
      ],
      [
        "v",
        "ui"
      ],
      [
        "ch",
        "ú"
      ],
      [
        "e",
        "b"
      ],
      [
        "ị",
        "ch"
      ],
      [
        "ứ",
        "c"
      ],
      [
        "á",
        "ch"
      ],
      [
        "w",
        "eb"
      ],
      [
        "ố",
        "i"
      ],
      [
        "d",
        "ễ"
      ],
      [
        "n",
        "âu"
      ],
      [
        "đ",
        "ề"
      ],
      [
        "ấ",
        "m"
      ],
      [
        "nh",
        "iên"
      ],
      [
        "n",
        "ổi"
      ],
      [
        "ữ",
        "ng"
      ],
      [
        "m",
        "ạnh"
      ],
      [
        "b",
        "ật"
      ],
      [
        "ả",
        "ng"
      ],
      [
        "v",
        "ề"
      ],
      [
        "ă",
        "n"
      ],
      [
        "m",
        "ới"
      ],
      [
        "c",
        "áo"
      ],
      [
        "v",
        "ì"
      ],
      [
        "si",
        "te"
      ],
      [
        "k",
        "iện"
      ],
      [
        "qu",
        "ảng"
      ],
      [
        "web",
        "site"
      ],
      [
        "đ",
        "ến"
      ],
      [
        "ờ",
        "i"
      ],
      [
        "tí",
        "m"
      ],
      [
        "đ",
        "iể"
      ],
      [
        "s",
        "ang"
      ],
      [
        "thu",
        "ật"
      ],
      [
        "ế",
        "u"
      ],
      [
        "ch",
        "ủ"
      ],
      [
        "v",
        "ẻ"
      ],
      [
        "kh",
        "í"
      ],
      [
        "X",
        "anh"
      ],
      [
        "qu",
        "an"
      ],
      [
        "t",
        "ự"
      ],
      [
        "r",
        "ất"
      ],
      [
        "t",
        "ôi"
      ],
      [
        "th",
        "ì"
      ],
      [
        "u",
        "ng"
      ],
      [
        "th",
        "iện"
      ],
      [
        "ả",
        "i"
      ],
      [
        "ò",
        "ng"
      ],
      [
        "ch",
        "uy"
      ],
      [
        "nh",
        "ững"
      ],
      [
        "ấ",
        "p"
      ],
      [
        "ph",
        "òng"
      ],
      [
        "iệ",
        "p"
      ],
      [
        "c",
        "ổ"
      ],
      [
        "tí",
        "nh"
      ],
      [
        "th",
        "ư"
      ],
      [
        "m",
        "ẽ"
      ],
      [
        "á",
        "p"
      ],
      [
        "ạ",
        "c"
      ],
      [
        "ượ",
        "ng"
      ],
      [
        "l",
        "o"
      ],
      [
        "t",
        "y"
      ],
      [
        "ú",
        "t"
      ],
      [
        "C",
        "ó"
      ],
      [
        "ã",
        "n"
      ],
      [
        "gi",
        "ãn"
      ],
      [
        "điể",
        "n"
      ],
      [
        "ấ",
        "n"
      ],
      [
        "á",
        "i"
      ],
      [
        "ố",
        "ng"
      ],
      [
        "N",
        "ếu"
      ],
      [
        "th",
        "ân"
      ],
      [
        "b",
        "ì"
      ],
      [
        "s",
        "ức"
      ],
      [
        "ngh",
        "iệp"
      ],
      [
        "ộ",
        "i"
      ],
      [
        "tr",
        "ẻ"
      ],
      [
        "tr",
        "ung"
      ],
      [
        "à",
        "nh"
      ],
      [
        "ơ",
        "n"
      ],
      [
        "tr",
        "uy"
      ],
      [
        "ti",
        "n"
      ],
      [
        "i",
        "m"
      ],
      [
        "l",
        "iên"
      ],
      [
        "s",
        "te"
      ],
      [
        "h",
        "út"
      ],
      [
        "nh",
        "ân"
      ],
      [
        "o",
        "à"
      ],
      [
        "l",
        "ịch"
      ],
      [
        "ị",
        "u"
      ],
      [
        "nh",
        "ẹ"
      ],
      [
        "ậ",
        "p"
      ],
      [
        "á",
        "t"
      ],
      [
        "kh",
        "i"
      ],
      [
        "c",
        "ậ"
      ],
      [
        "đ",
        "ậ"
      ],
      [
        "b",
        "ạc"
      ],
      [
        "chú",
        "ng"
      ],
      [
        "đậ",
        "m"
      ],
      [
        "v",
        "ăn"
      ],
      [
        "iệ",
        "c"
      ],
      [
        "nh",
        "àng"
      ],
      [
        "iệ",
        "u"
      ],
      [
        "th",
        "ời"
      ],
      [
        "v",
        "ật"
      ],
      [
        "t",
        "ác"
      ],
      [
        "ọ",
        "c"
      ],
      [
        "b",
        "ình"
      ],
      [
        "ú",
        "c"
      ],
      [
        "th",
        "o"
      ],
      [
        "th",
        "ực"
      ],
      [
        "chuy",
        "ên"
      ],
      [
        "h",
        "ơn"
      ],
      [
        "b",
        "ộ"
      ],
      [
        "th",
        "anh"
      ],
      [
        "th",
        "ao"
      ],
      [
        "ệ",
        "n"
      ],
      [
        "á",
        "n"
      ],
      [
        "g",
        "am"
      ],
      [
        "ữ",
        "a"
      ],
      [
        "g",
        "ần"
      ],
      [
        "h",
        "iệu"
      ],
      [
        "ù",
        "a"
      ],
      [
        "th",
        "ương"
      ],
      [
        "m",
        "ùa"
      ],
      [
        "t",
        "ập"
      ],
      [
        "ườ",
        "i"
      ],
      [
        "ng",
        "ười"
      ],
      [
        "e",
        "m"
      ],
      [
        "t",
        "ế"
      ],
      [
        "ti",
        "nh"
      ],
      [
        "ch",
        "ịu"
      ],
      [
        "á",
        "nh"
      ],
      [
        "g",
        "o"
      ],
      [
        "ê",
        "u"
      ],
      [
        "s",
        "ống"
      ],
      [
        "y",
        "ên"
      ],
      [
        "b",
        "ạn"
      ],
      [
        "1",
        "0"
      ],
      [
        "d",
        "iện"
      ],
      [
        "h",
        "àng"
      ],
      [
        "i",
        "ến"
      ],
      [
        "3",
        "0"
      ],
      [
        "cậ",
        "y"
      ],
      [
        "6",
        "0"
      ],
      [
        "g",
        "ũ"
      ],
      [
        "oà",
        "n"
      ],
      [
        "gũ",
        "i"
      ],
      [
        "1",
        "9"
      ],
      [
        "1",
        "2"
      ],
      [
        "3",
        "2"
      ],
      [
        "4",
        "2"
      ],
      [
        "5",
        "2"
      ],
      [
        "i",
        "ề"
      ],
      [
        "d",
        "ịch"
      ],
      [
        "1",
        "7"
      ],
      [
        "1",
        "8"
      ],
      [
        "3",
        "7"
      ],
      [
        "3",
        "8"
      ],
      [
        "3",
        "9"
      ],
      [
        "4",
        "0"
      ],
      [
        "4",
        "7"
      ],
      [
        "4",
        "8"
      ],
      [
        "4",
        "9"
      ],
      [
        "5",
        "0"
      ],
      [
        "6",
        "2"
      ],
      [
        "5",
        "7"
      ],
      [
        "5",
        "8"
      ],
      [
        "5",
        "9"
      ],
      [
        "6",
        "7"
      ],
      [
        "6",
        "8"
      ],
      [
        "6",
        "9"
      ],
      [
        "t",
        "ố"
      ],
      [
        "th",
        "ế"
      ],
      [
        "K",
        "h"
      ],
      [
        "b",
        "í"
      ],
      [
        "t",
        "ăng"
      ],
      [
        "kh",
        "ách"
      ],
      [
        "l",
        "ên"
      ],
      [
        "n",
        "ó"
      ],
      [
        "c",
        "ao"
      ],
      [
        "â",
        "m"
      ],
      [
        "Đ",
        "ỏ"
      ],
      [
        "c",
        "ấp"
      ],
      [
        "t",
        "oàn"
      ],
      [
        "ạ",
        "ch"
      ],
      [
        "nhạ",
        "c"
      ],
      [
        "nà",
        "y"
      ],
      [
        "bì",
        "a"
      ],
      [
        "đ",
        "ồ"
      ],
      [
        "thi",
        "ên"
      ],
      [
        "à",
        "i"
      ],
      [
        "c",
        "ần"
      ],
      [
        "c",
        "ách"
      ],
      [
        "qu",
        "y"
      ],
      [
        "kh",
        "ỏ"
      ],
      [
        "ư",
        "ớ"
      ],
      [
        "h",
        "ọc"
      ],
      [
        "t",
        "ối"
      ],
      [
        "iề",
        "u"
      ],
      [
        "khỏ",
        "e"
      ],
      [
        "ngh",
        "ĩ"
      ],
      [
        "tr",
        "í"
      ],
      [
        "p",
        "o"
      ],
      [
        "gi",
        "ữa"
      ],
      [
        "n",
        "e"
      ],
      [
        "s",
        "ạch"
      ],
      [
        "a",
        "y"
      ],
      [
        "t",
        "ượng"
      ],
      [
        "ẫ",
        "n"
      ],
      [
        "h",
        "ội"
      ],
      [
        "ph",
        "ong"
      ],
      [
        "ụ",
        "c"
      ],
      [
        "p",
        "a"
      ],
      [
        "s",
        "ao"
      ],
      [
        "ả",
        "o"
      ],
      [
        "ấ",
        "y"
      ],
      [
        "ậ",
        "n"
      ],
      [
        "c",
        "ường"
      ],
      [
        "ư",
        "ở"
      ],
      [
        "l",
        "ã"
      ],
      [
        "truy",
        "ền"
      ],
      [
        "ưở",
        "ng"
      ],
      [
        "à",
        "m"
      ],
      [
        "th",
        "ấy"
      ],
      [
        "L",
        "àm"
      ],
      [
        "ste",
        "r"
      ],
      [
        "d",
        "ẫn"
      ],
      [
        "t",
        "ì"
      ],
      [
        "tì",
        "m"
      ],
      [
        "ẩ",
        "n"
      ],
      [
        "ph",
        "ản"
      ],
      [
        "lo",
        "go"
      ],
      [
        "a",
        "u"
      ],
      [
        "l",
        "ượng"
      ],
      [
        "v",
        "iệc"
      ],
      [
        "x",
        "u"
      ],
      [
        "ph",
        "im"
      ],
      [
        "t",
        "ương"
      ],
      [
        "m",
        "ái"
      ],
      [
        "iệ",
        "t"
      ],
      [
        "V",
        "àng"
      ],
      [
        "tho",
        "ải"
      ],
      [
        "po",
        "ster"
      ],
      [
        "tr",
        "ên"
      ],
      [
        "h",
        "ấp"
      ],
      [
        "tr",
        "ông"
      ],
      [
        "tr",
        "ời"
      ],
      [
        "t",
        "ích"
      ],
      [
        "tr",
        "ường"
      ],
      [
        "o",
        "n"
      ],
      [
        "ó",
        "a"
      ],
      [
        "th",
        "ông"
      ],
      [
        "truy",
        "ện"
      ],
      [
        "ste",
        "l"
      ],
      [
        "đ",
        "ầ"
      ],
      [
        "k",
        "im"
      ],
      [
        "ă",
        "m"
      ],
      [
        "đ",
        "ổi"
      ],
      [
        "pa",
        "stel"
      ],
      [
        "m",
        "ôi"
      ],
      [
        "ó",
        "c"
      ],
      [
        "h",
        "ò"
      ],
      [
        "ạ",
        "t"
      ],
      [
        "h",
        "óa"
      ],
      [
        "hò",
        "a"
      ],
      [
        "b",
        "ảo"
      ],
      [
        "h",
        "uy"
      ],
      [
        "nh",
        "au"
      ],
      [
        "lo",
        "ại"
      ],
      [
        "t",
        "ình"
      ],
      [
        "tố",
        "t"
      ],
      [
        "2",
        "2"
      ],
      [
        "1",
        "1"
      ],
      [
        "3",
        "3"
      ],
      [
        "4",
        "4"
      ],
      [
        "5",
        "5"
      ],
      [
        "ho",
        "ạt"
      ],
      [
        "6",
        "6"
      ],
      [
        "t",
        "âm"
      ],
      [
        "ph",
        "ục"
      ],
      [
        "ế",
        "p"
      ],
      [
        "tr",
        "ở"
      ],
      [
        "si",
        "nh"
      ],
      [
        "n",
        "ền"
      ],
      [
        "v",
        "i"
      ],
      [
        "lã",
        "ng"
      ],
      [
        "ú",
        "ng"
      ],
      [
        "m",
        "ạn"
      ],
      [
        "n",
        "ội"
      ],
      [
        "m",
        "át"
      ],
      [
        "dụ",
        "c"
      ],
      [
        "2",
        "0"
      ],
      [
        "2",
        "7"
      ],
      [
        "2",
        "8"
      ],
      [
        "2",
        "9"
      ],
      [
        "d",
        "u"
      ],
      [
        "ắ",
        "t"
      ],
      [
        "uy",
        "ến"
      ],
      [
        "c",
        "úng"
      ],
      [
        "d",
        "àng"
      ],
      [
        "ứ",
        "ng"
      ],
      [
        "ướ",
        "c"
      ],
      [
        "x",
        "e"
      ],
      [
        "ĩ",
        "nh"
      ],
      [
        "b",
        "ao"
      ],
      [
        "đ",
        "ồng"
      ],
      [
        "h",
        "ình"
      ],
      [
        "nh",
        "ận"
      ],
      [
        "v",
        "ụ"
      ],
      [
        "1",
        "3"
      ],
      [
        "1",
        "4"
      ],
      [
        "1",
        "5"
      ],
      [
        "1",
        "6"
      ],
      [
        "b",
        "ền"
      ],
      [
        "s",
        "óc"
      ],
      [
        "v",
        "ững"
      ],
      [
        "ch",
        "ăm"
      ],
      [
        "iệ",
        "m"
      ],
      [
        "gi",
        "a"
      ],
      [
        "C",
        "h"
      ],
      [
        "b",
        "an"
      ],
      [
        "th",
        "ất"
      ],
      [
        "c",
        "ực"
      ],
      [
        "m",
        "à"
      ],
      [
        "h",
        "ành"
      ],
      [
        "t",
        "iệc"
      ],
      [
        "ộ",
        "ng"
      ],
      [
        "k",
        "ích"
      ],
      [
        "ư",
        "ng"
      ],
      [
        "đầ",
        "y"
      ],
      [
        "gam",
        "e"
      ],
      [
        "ne",
        "r"
      ],
      [
        "S",
        "ự"
      ],
      [
        "b",
        "e"
      ],
      [
        "ơ",
        "i"
      ],
      [
        "ẹ",
        "p"
      ],
      [
        "ch",
        "iến"
      ],
      [
        "3",
        "4"
      ],
      [
        "3",
        "5"
      ],
      [
        "3",
        "6"
      ],
      [
        "b",
        "u"
      ],
      [
        "i",
        "nh"
      ],
      [
        "x",
        "úc"
      ],
      [
        "huy",
        "ền"
      ],
      [
        "đ",
        "ẹp"
      ],
      [
        "ự",
        "a"
      ],
      [
        "b",
        "án"
      ],
      [
        "ạ",
        "ng"
      ],
      [
        "ẳ",
        "ng"
      ],
      [
        "tr",
        "anh"
      ],
      [
        "ti",
        "ếp"
      ],
      [
        "ban",
        "ner"
      ],
      [
        "t",
        "ĩnh"
      ],
      [
        "à",
        "o"
      ],
      [
        "ư",
        "u"
      ],
      [
        "điể",
        "m"
      ],
      [
        "biể",
        "n"
      ],
      [
        "Kh",
        "i"
      ],
      [
        "ê",
        "m"
      ],
      [
        "a",
        "i"
      ],
      [
        "l",
        "ựa"
      ],
      [
        "d",
        "o"
      ],
      [
        "ch",
        "ỉ"
      ],
      [
        "ph",
        "ối"
      ],
      [
        "Kh",
        "ông"
      ],
      [
        "ả",
        "nh"
      ],
      [
        "iể",
        "n"
      ],
      [
        "4",
        "6"
      ],
      [
        "h",
        "è"
      ],
      [
        "gi",
        "ao"
      ],
      [
        "4",
        "5"
      ],
      [
        "C",
        "am"
      ],
      [
        "đ",
        "iều"
      ],
      [
        "s",
        "ách"
      ],
      [
        "gi",
        "áo"
      ],
      [
        "qu",
        "á"
      ],
      [
        "n",
        "ữ"
      ],
      [
        "cả",
        "nh"
      ],
      [
        "xu",
        "ất"
      ],
      [
        "ả",
        "m"
      ],
      [
        "gi",
        "ản"
      ],
      [
        "ph",
        "ấn"
      ],
      [
        "5",
        "6"
      ],
      [
        "d",
        "a"
      ],
      [
        "n",
        "ước"
      ],
      [
        "t",
        "ải"
      ],
      [
        "ng",
        "ành"
      ],
      [
        "nh",
        "ớ"
      ],
      [
        "kh",
        "ác"
      ],
      [
        "ằ",
        "ng"
      ],
      [
        "tr",
        "ưng"
      ],
      [
        "kh",
        "ích"
      ],
      [
        "đ",
        "ị"
      ],
      [
        "i",
        "n"
      ],
      [
        "n",
        "ối"
      ],
      [
        "l",
        "ễ"
      ],
      [
        "t",
        "ưởng"
      ],
      [
        "tr",
        "iển"
      ],
      [
        "7",
        "0"
      ],
      [
        "d",
        "i"
      ],
      [
        "t",
        "ừ"
      ],
      [
        "đ",
        "iện"
      ],
      [
        "b",
        "ị"
      ],
      [
        "h",
        "ồ"
      ],
      [
        "m",
        "ắt"
      ],
      [
        "đ",
        "ang"
      ],
      [
        "Ch",
        "ủ"
      ],
      [
        "í",
        "nh"
      ],
      [
        "đ",
        "áng"
      ],
      [
        "ng",
        "oà"
      ],
      [
        "nh",
        "à"
      ],
      [
        "ngoà",
        "i"
      ],
      [
        "b",
        "iệt"
      ],
      [
        "r",
        "ũ"
      ],
      [
        "ó",
        "ng"
      ],
      [
        "kh",
        "o"
      ],
      [
        "quy",
        "ến"
      ],
      [
        "v",
        "ệ"
      ],
      [
        "e",
        "o"
      ],
      [
        "ó",
        "n"
      ],
      [
        "cả",
        "i"
      ],
      [
        "5",
        "4"
      ],
      [
        "l",
        "ý"
      ],
      [
        "qu",
        "ý"
      ],
      [
        "N",
        "âu"
      ],
      [
        "s",
        "âu"
      ],
      [
        "th",
        "ành"
      ],
      [
        "kh",
        "uyến"
      ],
      [
        "uố",
        "ng"
      ],
      [
        "đị",
        "nh"
      ],
      [
        "T",
        "ại"
      ],
      [
        "ch",
        "i"
      ],
      [
        "kh",
        "u"
      ],
      [
        "6",
        "5"
      ],
      [
        "V",
        "ì"
      ],
      [
        "h",
        "iể"
      ],
      [
        "ph",
        "át"
      ],
      [
        "3",
        "1"
      ],
      [
        "C",
        "ác"
      ],
      [
        "l",
        "ạnh"
      ],
      [
        "đ",
        "ông"
      ],
      [
        "th",
        "ống"
      ],
      [
        "T",
        "r"
      ],
      [
        "m",
        "ón"
      ],
      [
        "đ",
        "ường"
      ],
      [
        "6",
        "4"
      ],
      [
        "kh",
        "ám"
      ],
      [
        "c",
        "à"
      ],
      [
        "y",
        "êu"
      ],
      [
        "ặ",
        "ng"
      ],
      [
        "ể",
        "n"
      ],
      [
        "ổ",
        "n"
      ],
      [
        "ch",
        "ính"
      ],
      [
        "nghĩ",
        "a"
      ],
      [
        "Đ",
        "en"
      ],
      [
        "ạ",
        "o"
      ],
      [
        "4",
        "3"
      ],
      [
        "5",
        "3"
      ],
      [
        "ph",
        "ố"
      ],
      [
        "ph",
        "ái"
      ],
      [
        "độ",
        "i"
      ],
      [
        "hồ",
        "i"
      ],
      [
        "g",
        "e"
      ],
      [
        "đ",
        "ặc"
      ],
      [
        "ắ",
        "n"
      ],
      [
        "S",
        "ử"
      ],
      [
        "i",
        "ết"
      ],
      [
        "s",
        "ôi"
      ],
      [
        "t",
        "ài"
      ],
      [
        "cậ",
        "n"
      ],
      [
        "2",
        "6"
      ],
      [
        "4",
        "1"
      ],
      [
        "d",
        "ịu"
      ],
      [
        "5",
        "1"
      ],
      [
        "6",
        "3"
      ],
      [
        "L",
        "o"
      ],
      [
        "b",
        "áo"
      ],
      [
        "x",
        "ã"
      ],
      [
        "th",
        "ay"
      ],
      [
        "hiể",
        "m"
      ],
      [
        "c",
        "ơ"
      ],
      [
        "n",
        "iệm"
      ],
      [
        "y",
        "ếu"
      ],
      [
        "ti",
        "ết"
      ],
      [
        "c",
        "ăng"
      ],
      [
        "h",
        "ài"
      ],
      [
        "và",
        "o"
      ],
      [
        "2",
        "5"
      ],
      [
        "6",
        "1"
      ],
      [
        "P",
        "h"
      ],
      [
        "ở",
        "i"
      ],
      [
        "ử",
        "a"
      ],
      [
        "c",
        "á"
      ],
      [
        "c",
        "ửa"
      ],
      [
        "t",
        "ử"
      ],
      [
        "th",
        "ẳng"
      ],
      [
        "ph",
        "á"
      ],
      [
        "ph",
        "ê"
      ],
      [
        "2",
        "4"
      ],
      [
        "ầ",
        "u"
      ],
      [
        "kh",
        "ởi"
      ],
      [
        "qu",
        "án"
      ],
      [
        "Lo",
        "go"
      ],
      [
        "D",
        "ĩ"
      ],
      [
        "g",
        "ây"
      ],
      [
        "l",
        "ớ"
      ],
      [
        "gi",
        "ảm"
      ],
      [
        "ti",
        "êu"
      ],
      [
        "H",
        "ồng"
      ],
      [
        "b",
        "iến"
      ],
      [
        "b",
        "iết"
      ],
      [
        "l",
        "ực"
      ],
      [
        "v",
        "ực"
      ],
      [
        "nh",
        "ấn"
      ],
      [
        "ch",
        "ức"
      ],
      [
        "ngh",
        "i"
      ],
      [
        "bu",
        "ổi"
      ],
      [
        "k",
        "i"
      ],
      [
        "đ",
        "ình"
      ],
      [
        "2",
        "3"
      ],
      [
        "c",
        "o"
      ],
      [
        "m",
        "ỹ"
      ],
      [
        "ch",
        "ất"
      ],
      [
        "quy",
        "ết"
      ],
      [
        "h",
        "ọ"
      ],
      [
        "m",
        "ẻ"
      ],
      [
        "th",
        "ú"
      ],
      [
        "chuy",
        "ển"
      ],
      [
        "ướ",
        "ng"
      ],
      [
        "Tr",
        "ắng"
      ],
      [
        "a",
        "l"
      ],
      [
        "l",
        "ạc"
      ],
      [
        "nh",
        "iều"
      ],
      [
        "nh",
        "iệt"
      ],
      [
        "2",
        "1"
      ],
      [
        "t",
        "ô"
      ],
      [
        "d",
        "ư"
      ],
      [
        "t",
        "ổ"
      ],
      [
        "ph",
        "i"
      ],
      [
        "T",
        "í"
      ],
      [
        "đ",
        "a"
      ],
      [
        "ộ",
        "c"
      ],
      [
        "ứ",
        "a"
      ],
      [
        "độ",
        "c"
      ],
      [
        "chuy",
        "ện"
      ],
      [
        "ne",
        "on"
      ],
      [
        "Tí",
        "m"
      ],
      [
        "h",
        "ai"
      ],
      [
        "đ",
        "ối"
      ],
      [
        "nh",
        "anh"
      ],
      [
        "gi",
        "ải"
      ],
      [
        "ph",
        "ải"
      ],
      [
        "c",
        "âu"
      ],
      [
        "i",
        "ge"
      ],
      [
        "k",
        "ỷ"
      ],
      [
        "đ",
        "i"
      ],
      [
        "ch",
        "u"
      ],
      [
        "ch",
        "ứa"
      ],
      [
        "tr",
        "ình"
      ],
      [
        "be",
        "ige"
      ],
      [
        "l",
        "ưu"
      ],
      [
        "ũ",
        "ng"
      ],
      [
        "ch",
        "ơi"
      ],
      [
        "gi",
        "ới"
      ],
      [
        "nghi",
        "êm"
      ],
      [
        "b",
        "ệ"
      ],
      [
        "d",
        "ự"
      ],
      [
        "ắ",
        "m"
      ],
      [
        "ế",
        "m"
      ],
      [
        "ọ",
        "t"
      ],
      [
        "ng",
        "ọt"
      ],
      [
        "ph",
        "ần"
      ],
      [
        "kh",
        "ả"
      ],
      [
        "bệ",
        "nh"
      ],
      [
        "b",
        "óng"
      ],
      [
        "h",
        "ệ"
      ],
      [
        "h",
        "ướng"
      ],
      [
        "ã",
        "i"
      ],
      [
        "đ",
        "ơn"
      ],
      [
        "tr",
        "ực"
      ],
      [
        "kh",
        "ẩn"
      ],
      [
        "b",
        "ức"
      ],
      [
        "ư",
        "a"
      ],
      [
        "ki",
        "ếm"
      ],
      [
        "X",
        "ám"
      ],
      [
        "b",
        "ằng"
      ],
      [
        "x",
        "em"
      ],
      [
        "đ",
        "ất"
      ],
      [
        "ấ",
        "u"
      ],
      [
        "ỡ",
        "ng"
      ],
      [
        "nh",
        "ỏ"
      ],
      [
        "dư",
        "ỡng"
      ],
      [
        "b",
        "ổ"
      ],
      [
        "d",
        "ạng"
      ],
      [
        "ng",
        "ủ"
      ],
      [
        "c",
        "ư"
      ],
      [
        "h",
        "ộ"
      ],
      [
        "à",
        "n"
      ],
      [
        "tạ",
        "i"
      ],
      [
        "khi",
        "ết"
      ],
      [
        "h",
        "ữ"
      ],
      [
        "ề",
        "m"
      ],
      [
        "ồ",
        "n"
      ],
      [
        "cư",
        "ới"
      ],
      [
        "hữ",
        "u"
      ],
      [
        "b",
        "ản"
      ],
      [
        "k",
        "iến"
      ],
      [
        "t",
        "uyến"
      ],
      [
        "đ",
        "ã"
      ],
      [
        "ng",
        "on"
      ],
      [
        "ph",
        "úc"
      ],
      [
        "c",
        "ộng"
      ],
      [
        "c",
        "ũng"
      ],
      [
        "h",
        "ạnh"
      ],
      [
        "l",
        "ập"
      ],
      [
        "ì",
        "n"
      ],
      [
        "ng",
        "ào"
      ],
      [
        "th",
        "ần"
      ],
      [
        "th",
        "ái"
      ],
      [
        "nh",
        "ìn"
      ],
      [
        "tr",
        "úc"
      ],
      [
        "tô",
        "n"
      ],
      [
        "V",
        "ới"
      ],
      [
        "đ",
        "áo"
      ],
      [
        "ố",
        "c"
      ],
      [
        "tr",
        "ạng"
      ],
      [
        "8",
        "0"
      ],
      [
        "h",
        "ưởng"
      ],
      [
        "t",
        "ường"
      ],
      [
        "t",
        "úc"
      ],
      [
        "v",
        "ị"
      ],
      [
        "à",
        "y"
      ],
      [
        "đ",
        "iệp"
      ],
      [
        "th",
        "ức"
      ],
      [
        "ch",
        "ế"
      ],
      [
        "ph",
        "ú"
      ],
      [
        "khi",
        "ến"
      ],
      [
        "c",
        "ân"
      ],
      [
        "m",
        "ềm"
      ],
      [
        "đ",
        "ẳng"
      ],
      [
        "là",
        "nh"
      ],
      [
        "như",
        "ng"
      ],
      [
        "phi",
        "êu"
      ],
      [
        "b",
        "ữa"
      ],
      [
        "d",
        "ị"
      ],
      [
        "h",
        "ứng"
      ],
      [
        "đ",
        "ọc"
      ],
      [
        "th",
        "eo"
      ],
      [
        "ph",
        "ổ"
      ],
      [
        "uy",
        "ện"
      ],
      [
        "tí",
        "n"
      ],
      [
        "tho",
        "át"
      ],
      [
        "Q",
        "u"
      ],
      [
        "d",
        "eo"
      ],
      [
        "g",
        "a"
      ],
      [
        "l",
        "uyện"
      ],
      [
        "n",
        "út"
      ],
      [
        "r",
        "ằng"
      ],
      [
        "s",
        "ưu"
      ],
      [
        "è",
        "m"
      ],
      [
        "ó",
        "i"
      ],
      [
        "gi",
        "àu"
      ],
      [
        "vi",
        "deo"
      ],
      [
        "7",
        "9"
      ],
      [
        "8",
        "9"
      ],
      [
        "h",
        "uống"
      ],
      [
        "m",
        "ê"
      ],
      [
        "v",
        "iên"
      ],
      [
        "đ",
        "am"
      ],
      [
        "ng",
        "ọc"
      ],
      [
        "chu",
        "ộng"
      ],
      [
        "2",
        "D"
      ],
      [
        "k",
        "ỳ"
      ],
      [
        "t",
        "a"
      ],
      [
        "ho",
        "a"
      ],
      [
        "Ph",
        "ối"
      ],
      [
        "7",
        "7"
      ],
      [
        "8",
        "8"
      ],
      [
        "9",
        "0"
      ],
      [
        "B",
        "ộ"
      ],
      [
        "l",
        "ặng"
      ],
      [
        "r",
        "ượ"
      ],
      [
        "ễ",
        "n"
      ],
      [
        "ọ",
        "i"
      ],
      [
        "ng",
        "uy"
      ],
      [
        "th",
        "èm"
      ],
      [
        "ph",
        "ụ"
      ],
      [
        "ngh",
        "iệm"
      ],
      [
        "quy",
        "ền"
      ],
      [
        "rượ",
        "u"
      ],
      [
        "9",
        "9"
      ],
      [
        "t",
        "u"
      ],
      [
        "qu",
        "ần"
      ],
      [
        "tho",
        "ại"
      ],
      [
        "đầ",
        "u"
      ],
      [
        "họ",
        "a"
      ],
      [
        "7",
        "8"
      ],
      [
        "n",
        "ông"
      ],
      [
        "t",
        "ắm"
      ],
      [
        "l",
        "ẽ"
      ],
      [
        "t",
        "am"
      ],
      [
        "tr",
        "ưởng"
      ],
      [
        "xu",
        "ân"
      ],
      [
        "vi",
        "tam"
      ],
      [
        "lớ",
        "p"
      ],
      [
        "co",
        "i"
      ],
      [
        "lẽ",
        "o"
      ],
      [
        "vitam",
        "in"
      ],
      [
        "8",
        "7"
      ],
      [
        "b",
        "ánh"
      ],
      [
        "m",
        "iệ"
      ],
      [
        "qu",
        "ốc"
      ],
      [
        "hộ",
        "p"
      ],
      [
        "miệ",
        "ng"
      ],
      [
        "9",
        "7"
      ],
      [
        "9",
        "8"
      ],
      [
        "m",
        "ình"
      ],
      [
        "a",
        "r"
      ],
      [
        "c",
        "u"
      ],
      [
        "g",
        "ắn"
      ],
      [
        "ừ",
        "u"
      ],
      [
        "nh",
        "ất"
      ],
      [
        "tr",
        "ừu"
      ],
      [
        "tạ",
        "p"
      ],
      [
        "kh",
        "át"
      ],
      [
        "qu",
        "ả"
      ],
      [
        "cu",
        "ộc"
      ],
      [
        "c",
        "ầu"
      ],
      [
        "d",
        "ành"
      ],
      [
        "k",
        "inh"
      ],
      [
        "m",
        "ơ"
      ],
      [
        "t",
        "ư"
      ],
      [
        "t",
        "uy"
      ],
      [
        "x",
        "a"
      ],
      [
        "th",
        "êm"
      ],
      [
        "ch",
        "ói"
      ],
      [
        "si",
        "êu"
      ],
      [
        "huy",
        "ết"
      ],
      [
        "kho",
        "a"
      ],
      [
        "k",
        "ịch"
      ],
      [
        "n",
        "ay"
      ],
      [
        "v",
        "ận"
      ],
      [
        "tr",
        "ánh"
      ],
      [
        "ph",
        "ức"
      ],
      [
        "iề",
        "m"
      ],
      [
        "b",
        "ầu"
      ],
      [
        "l",
        "ắng"
      ],
      [
        "r",
        "ỡ"
      ],
      [
        "r",
        "ực"
      ],
      [
        "tr",
        "àn"
      ],
      [
        "kh",
        "ó"
      ],
      [
        "nó",
        "ng"
      ],
      [
        "l",
        "i"
      ],
      [
        "l",
        "ục"
      ],
      [
        "m",
        "a"
      ],
      [
        "m",
        "ạo"
      ],
      [
        "n",
        "iềm"
      ],
      [
        "r",
        "ộng"
      ],
      [
        "t",
        "ông"
      ],
      [
        "th",
        "am"
      ],
      [
        "ch",
        "iều"
      ],
      [
        "gi",
        "á"
      ],
      [
        "ngh",
        "ỉ"
      ],
      [
        "lớ",
        "n"
      ],
      [
        "0",
        "0"
      ],
      [
        "0",
        "1"
      ],
      [
        "0",
        "2"
      ],
      [
        "0",
        "3"
      ],
      [
        "0",
        "4"
      ],
      [
        "0",
        "5"
      ],
      [
        "0",
        "6"
      ],
      [
        "0",
        "7"
      ],
      [
        "0",
        "8"
      ],
      [
        "0",
        "9"
      ],
      [
        "7",
        "1"
      ],
      [
        "7",
        "2"
      ],
      [
        "7",
        "3"
      ],
      [
        "8",
        "1"
      ],
      [
        "8",
        "3"
      ],
      [
        "8",
        "4"
      ],
      [
        "8",
        "5"
      ],
      [
        "8",
        "6"
      ],
      [
        "9",
        "2"
      ],
      [
        "9",
        "5"
      ],
      [
        "9",
        "6"
      ],
      [
        "l",
        "ợi"
      ],
      [
        "m",
        "u"
      ],
      [
        "m",
        "ại"
      ],
      [
        "o",
        "ga"
      ],
      [
        "t",
        "iện"
      ],
      [
        "v",
        "ọng"
      ],
      [
        "y",
        "oga"
      ],
      [
        "đ",
        "ấu"
      ],
      [
        "7",
        "4"
      ],
      [
        "7",
        "5"
      ],
      [
        "7",
        "6"
      ],
      [
        "8",
        "2"
      ],
      [
        "9",
        "1"
      ],
      [
        "9",
        "3"
      ],
      [
        "9",
        "4"
      ],
      [
        "a",
        "v"
      ],
      [
        "c",
        "uốn"
      ],
      [
        "d",
        "e"
      ],
      [
        "h",
        "y"
      ],
      [
        "ặ",
        "t"
      ],
      [
        "b",
        "ếp"
      ],
      [
        "k",
        "em"
      ],
      [
        "l",
        "inh"
      ],
      [
        "n",
        "â"
      ],
      [
        "s",
        "ung"
      ],
      [
        "s",
        "pa"
      ],
      [
        "t",
        "ái"
      ],
      [
        "nh",
        "ật"
      ],
      [
        "ch",
        "anh"
      ],
      [
        "do",
        "anh"
      ],
      [
        "Ph",
        "ong"
      ],
      [
        "tu",
        "ổi"
      ],
      [
        "nâ",
        "ng"
      ],
      [
        "g",
        "h"
      ],
      [
        "l",
        "am"
      ],
      [
        "t",
        "o"
      ],
      [
        "t",
        "iên"
      ],
      [
        "ti",
        "ến"
      ],
      [
        "tho",
        "áng"
      ],
      [
        "Qu",
        "án"
      ],
      [
        "T",
        "h"
      ],
      [
        "r",
        "o"
      ],
      [
        "è",
        "n"
      ],
      [
        "đ",
        "èn"
      ],
      [
        "tr",
        "ải"
      ],
      [
        "qu",
        "a"
      ],
      [
        "d",
        "ung"
      ],
      [
        "m",
        "á"
      ],
      [
        "é",
        "p"
      ],
      [
        "đ",
        "á"
      ],
      [
        "ỏ",
        "i"
      ],
      [
        "th",
        "ủ"
      ],
      [
        "tr",
        "ị"
      ],
      [
        "kh",
        "ứ"
      ],
      [
        "kh",
        "ơi"
      ],
      [
        "qu",
        "à"
      ],
      [
        "đ",
        "ôi"
      ],
      [
        "ế",
        "c"
      ],
      [
        "kh",
        "ắc"
      ],
      [
        "chi",
        "ếc"
      ],
      [
        "đã",
        "ng"
      ],
      [
        "b",
        "ắt"
      ],
      [
        "g",
        "ọi"
      ],
      [
        "h",
        "ào"
      ],
      [
        "l",
        "ôi"
      ],
      [
        "v",
        "ấn"
      ],
      [
        "ệ",
        "t"
      ],
      [
        "nh",
        "i"
      ],
      [
        "ch",
        "ống"
      ],
      [
        "ph",
        "ương"
      ],
      [
        "ra",
        "u"
      ],
      [
        "dự",
        "ng"
      ],
      [
        "b",
        "o"
      ],
      [
        "b",
        "ất"
      ],
      [
        "n",
        "av"
      ],
      [
        "r",
        "ãi"
      ],
      [
        "t",
        "óc"
      ],
      [
        "t",
        "ặng"
      ],
      [
        "v",
        "ườ"
      ],
      [
        "x",
        "ây"
      ],
      [
        "đ",
        "ạo"
      ],
      [
        "ậ",
        "y"
      ],
      [
        "lã",
        "m"
      ],
      [
        "mu",
        "a"
      ],
      [
        "nav",
        "y"
      ],
      [
        "vườ",
        "n"
      ],
      [
        "G",
        "am"
      ],
      [
        "m",
        "ô"
      ],
      [
        "m",
        "ối"
      ],
      [
        "m",
        "ạch"
      ],
      [
        "y",
        "m"
      ],
      [
        "ừ",
        "ng"
      ],
      [
        "ng",
        "ay"
      ],
      [
        "ch",
        "óng"
      ],
      [
        "tr",
        "ương"
      ],
      [
        "gi",
        "ữ"
      ],
      [
        "ho",
        "ài"
      ],
      [
        "ngh",
        "ị"
      ],
      [
        "ti",
        "m"
      ],
      [
        "bu",
        "ồn"
      ],
      [
        "kho",
        "ảnh"
      ],
      [
        "e",
        "l"
      ],
      [
        "h",
        "ùng"
      ],
      [
        "m",
        "ật"
      ],
      [
        "m",
        "ời"
      ],
      [
        "n",
        "áo"
      ],
      [
        "v",
        "iện"
      ],
      [
        "Đ",
        "ể"
      ],
      [
        "th",
        "ẩm"
      ],
      [
        "gi",
        "ày"
      ],
      [
        "ph",
        "ân"
      ],
      [
        "c",
        "ứ"
      ],
      [
        "g",
        "ym"
      ],
      [
        "h",
        "ay"
      ],
      [
        "h",
        "ơi"
      ],
      [
        "m",
        "ất"
      ],
      [
        "m",
        "ặt"
      ],
      [
        "t",
        "ả"
      ],
      [
        "u",
        "de"
      ],
      [
        "v",
        "í"
      ],
      [
        "ã",
        "nh"
      ],
      [
        "ầ",
        "m"
      ],
      [
        "ch",
        "ương"
      ],
      [
        "kh",
        "ăn"
      ],
      [
        "mộ",
        "ng"
      ],
      [
        "ti",
        "c"
      ],
      [
        "thu",
        "ộc"
      ],
      [
        "Ch",
        "ọn"
      ],
      [
        "cứ",
        "u"
      ],
      [
        "K",
        "ết"
      ],
      [
        "c",
        "k"
      ],
      [
        "l",
        "a"
      ],
      [
        "n",
        "ặng"
      ],
      [
        "s",
        "ữa"
      ],
      [
        "x",
        "ơ"
      ],
      [
        "ê",
        "ng"
      ],
      [
        "đ",
        "ảm"
      ],
      [
        "là",
        "n"
      ],
      [
        "di",
        "ễn"
      ],
      [
        ")",
        "."
      ],
      [
        "3",
        "không"
      ],
      [
        "N",
        "h"
      ],
      [
        "b",
        "ạo"
      ],
      [
        "c",
        "ô"
      ],
      [
        "c",
        "ưng"
      ],
      [
        "l",
        "ĩnh"
      ],
      [
        "m",
        "ức"
      ],
      [
        "m",
        "ạng"
      ],
      [
        "n",
        "ăm"
      ],
      [
        "t",
        "ùng"
      ],
      [
        "t",
        "ức"
      ],
      [
        "x",
        "i"
      ],
      [
        "ã",
        "o"
      ],
      [
        "ó",
        "m"
      ],
      [
        "th",
        "úc"
      ],
      [
        "nh",
        "óm"
      ],
      [
        "ch",
        "ắc"
      ],
      [
        "ch",
        "ay"
      ],
      [
        "tr",
        "ò"
      ],
      [
        "tr",
        "ào"
      ],
      [
        "tr",
        "ầm"
      ],
      [
        "gi",
        "ả"
      ],
      [
        "thu",
        "ê"
      ],
      [
        "lo",
        "ài"
      ],
      [
        "kho",
        "ắn"
      ],
      [
        "nguy",
        "ên"
      ],
      [
        "tuy",
        "ển"
      ],
      [
        "má",
        "y"
      ],
      [
        "1",
        "nào"
      ],
      [
        "G",
        "i"
      ],
      [
        "c",
        "ụ"
      ],
      [
        "d",
        "ậy"
      ],
      [
        "h",
        "ạn"
      ],
      [
        "h",
        "ước"
      ],
      [
        "i",
        "on"
      ],
      [
        "m",
        "inh"
      ],
      [
        "m",
        "ọi"
      ],
      [
        "n",
        "ề"
      ],
      [
        "n",
        "ta"
      ],
      [
        "u",
        "r"
      ],
      [
        "đ",
        "o"
      ],
      [
        "đ",
        "ô"
      ],
      [
        "đ",
        "ương"
      ],
      [
        "đ",
        "ào"
      ],
      [
        "ễ",
        "m"
      ],
      [
        "nh",
        "u"
      ],
      [
        "uố",
        "i"
      ],
      [
        "đề",
        "u"
      ],
      [
        "vi",
        "nta"
      ],
      [
        "họ",
        "p"
      ],
      [
        "nhi",
        "ễm"
      ],
      [
        "vinta",
        "ge"
      ],
      [
        "4",
        "không"
      ],
      [
        "d",
        "ã"
      ],
      [
        "h",
        "ỏi"
      ],
      [
        "k",
        "iên"
      ],
      [
        "l",
        "òng"
      ],
      [
        "s",
        "ố"
      ],
      [
        "s",
        "uy"
      ],
      [
        "s",
        "ắm"
      ],
      [
        "t",
        "áo"
      ],
      [
        "v",
        "ồng"
      ],
      [
        "đ",
        "ó"
      ],
      [
        "đ",
        "ám"
      ],
      [
        "ẫ",
        "m"
      ],
      [
        "ớ",
        "t"
      ],
      [
        "ng",
        "ân"
      ],
      [
        "kh",
        "ao"
      ],
      [
        "thị",
        "nh"
      ],
      [
        "bu",
        "m"
      ],
      [
        "al",
        "bum"
      ],
      [
        "Qu",
        "ảng"
      ],
      [
        "4",
        "màu"
      ],
      [
        "6",
        "không"
      ],
      [
        "b",
        "ảng"
      ],
      [
        "d",
        "ép"
      ],
      [
        "g",
        "ỗ"
      ],
      [
        "n",
        "ắng"
      ],
      [
        "n",
        "ude"
      ],
      [
        "o",
        "x"
      ],
      [
        "r",
        "ối"
      ],
      [
        "t",
        "ách"
      ],
      [
        "th",
        "í"
      ],
      [
        "th",
        "ử"
      ],
      [
        "tr",
        "ái"
      ],
      [
        "gh",
        "ế"
      ],
      [
        "b",
        "a"
      ],
      [
        "b",
        "ài"
      ],
      [
        "d",
        "uy"
      ],
      [
        "k",
        "ỹ"
      ],
      [
        "k",
        "ính"
      ],
      [
        "l",
        "ẻ"
      ],
      [
        "l",
        "ai"
      ],
      [
        "m",
        "ở"
      ],
      [
        "m",
        "àng"
      ],
      [
        "o",
        "r"
      ],
      [
        "r",
        "õ"
      ],
      [
        "v",
        "ũ"
      ],
      [
        "v",
        "ượng"
      ],
      [
        "đ",
        "ẩ"
      ],
      [
        "đ",
        "oàn"
      ],
      [
        "đ",
        "êm"
      ],
      [
        "th",
        "ảo"
      ],
      [
        "ch",
        "í"
      ],
      [
        "ch",
        "ữ"
      ],
      [
        "tr",
        "à"
      ],
      [
        "thi",
        "ếu"
      ],
      [
        "ho",
        "ang"
      ],
      [
        "po",
        "p"
      ],
      [
        "Nh",
        "ững"
      ],
      [
        "đo",
        "án"
      ],
      [
        "đẩ",
        "y"
      ],
      [
        "N",
        "ên"
      ],
      [
        "b",
        "ỉ"
      ],
      [
        "b",
        "ar"
      ],
      [
        "e",
        "s"
      ],
      [
        "m",
        "e"
      ],
      [
        "m",
        "i"
      ],
      [
        "m",
        "ãi"
      ],
      [
        "p",
        "in"
      ],
      [
        "s",
        "ạn"
      ],
      [
        "s",
        "ân"
      ],
      [
        "t",
        "ồn"
      ],
      [
        "đ",
        "ây"
      ],
      [
        "đ",
        "âu"
      ],
      [
        "ạ",
        "m"
      ],
      [
        "ỗ",
        "i"
      ],
      [
        "ng",
        "ày"
      ],
      [
        "th",
        "ảm"
      ],
      [
        "ch",
        "ờ"
      ],
      [
        "ch",
        "ân"
      ],
      [
        "chuy",
        "ến"
      ],
      [
        "lo",
        "ạn"
      ],
      [
        "vi",
        "ễn"
      ],
      [
        "to",
        "ur"
      ],
      [
        "Gi",
        "áng"
      ],
      [
        "2",
        "màu"
      ],
      [
        "3",
        "nào"
      ],
      [
        "4",
        "32"
      ],
      [
        "4",
        "52"
      ],
      [
        "5",
        "nào"
      ],
      [
        "6",
        "32"
      ],
      [
        "6",
        "42"
      ],
      [
        "7",
        "không"
      ],
      [
        "8",
        "không"
      ],
      [
        "E",
        "D"
      ],
      [
        "H",
        "ai"
      ],
      [
        "b",
        "ó"
      ],
      [
        "b",
        "ích"
      ],
      [
        "b",
        "inh"
      ],
      [
        "c",
        "an"
      ],
      [
        "h",
        "i"
      ],
      [
        "h",
        "át"
      ],
      [
        "h",
        "ãnh"
      ],
      [
        "l",
        "u"
      ],
      [
        "o",
        "l"
      ],
      [
        "r",
        "àng"
      ],
      [
        "s",
        "ở"
      ],
      [
        "s",
        "ạc"
      ],
      [
        "u",
        "ồn"
      ],
      [
        "v",
        "ĩ"
      ],
      [
        "x",
        "ương"
      ],
      [
        "x",
        "ưa"
      ],
      [
        "ng",
        "ơi"
      ],
      [
        "ng",
        "uồn"
      ],
      [
        "th",
        "ám"
      ],
      [
        "th",
        "ượng"
      ],
      [
        "ch",
        "ắn"
      ],
      [
        "tr",
        "ước"
      ],
      [
        "ượ",
        "t"
      ],
      [
        "qu",
        "ang"
      ],
      [
        "en",
        "t"
      ],
      [
        "vi",
        "nh"
      ],
      [
        "hiể",
        "u"
      ],
      [
        "ki",
        "êu"
      ],
      [
        "li",
        "u"
      ],
      [
        "gh",
        "i"
      ],
      [
        "ox",
        "y"
      ],
      [
        "1",
        "10"
      ],
      [
        "1",
        "30"
      ],
      [
        "1",
        "60"
      ],
      [
        "1",
        "19"
      ],
      [
        "1",
        "12"
      ],
      [
        "1",
        "32"
      ],
      [
        "1",
        "42"
      ],
      [
        "1",
        "52"
      ],
      [
        "1",
        "17"
      ],
      [
        "1",
        "18"
      ],
      [
        "1",
        "37"
      ],
      [
        "1",
        "38"
      ],
      [
        "1",
        "39"
      ],
      [
        "1",
        "40"
      ],
      [
        "1",
        "47"
      ],
      [
        "1",
        "48"
      ],
      [
        "1",
        "49"
      ],
      [
        "1",
        "50"
      ],
      [
        "1",
        "62"
      ],
      [
        "1",
        "57"
      ],
      [
        "1",
        "58"
      ],
      [
        "1",
        "59"
      ],
      [
        "1",
        "67"
      ],
      [
        "1",
        "68"
      ],
      [
        "1",
        "69"
      ],
      [
        "2",
        "10"
      ],
      [
        "2",
        "30"
      ],
      [
        "2",
        "60"
      ],
      [
        "2",
        "19"
      ],
      [
        "2",
        "12"
      ],
      [
        "2",
        "32"
      ],
      [
        "2",
        "42"
      ],
      [
        "2",
        "52"
      ],
      [
        "2",
        "17"
      ],
      [
        "2",
        "18"
      ],
      [
        "2",
        "37"
      ],
      [
        "2",
        "38"
      ],
      [
        "2",
        "39"
      ],
      [
        "2",
        "40"
      ],
      [
        "2",
        "47"
      ],
      [
        "2",
        "48"
      ],
      [
        "2",
        "49"
      ],
      [
        "2",
        "50"
      ],
      [
        "2",
        "62"
      ],
      [
        "2",
        "57"
      ],
      [
        "2",
        "58"
      ],
      [
        "2",
        "59"
      ],
      [
        "2",
        "67"
      ],
      [
        "2",
        "68"
      ],
      [
        "2",
        "69"
      ],
      [
        "3",
        "10"
      ],
      [
        "3",
        "30"
      ],
      [
        "3",
        "60"
      ],
      [
        "3",
        "19"
      ],
      [
        "3",
        "12"
      ],
      [
        "3",
        "32"
      ],
      [
        "3",
        "42"
      ],
      [
        "3",
        "52"
      ],
      [
        "3",
        "17"
      ],
      [
        "3",
        "18"
      ],
      [
        "3",
        "37"
      ],
      [
        "3",
        "38"
      ],
      [
        "3",
        "39"
      ],
      [
        "3",
        "40"
      ],
      [
        "3",
        "47"
      ],
      [
        "3",
        "48"
      ],
      [
        "3",
        "49"
      ],
      [
        "3",
        "50"
      ],
      [
        "3",
        "62"
      ],
      [
        "3",
        "57"
      ],
      [
        "3",
        "58"
      ],
      [
        "3",
        "59"
      ],
      [
        "3",
        "67"
      ],
      [
        "3",
        "68"
      ],
      [
        "3",
        "69"
      ],
      [
        "4",
        "10"
      ],
      [
        "4",
        "30"
      ],
      [
        "4",
        "60"
      ],
      [
        "4",
        "19"
      ],
      [
        "4",
        "12"
      ],
      [
        "4",
        "42"
      ],
      [
        "4",
        "17"
      ],
      [
        "4",
        "18"
      ],
      [
        "4",
        "37"
      ],
      [
        "4",
        "38"
      ],
      [
        "4",
        "39"
      ],
      [
        "4",
        "40"
      ],
      [
        "4",
        "47"
      ],
      [
        "4",
        "48"
      ],
      [
        "4",
        "49"
      ],
      [
        "4",
        "50"
      ],
      [
        "4",
        "62"
      ],
      [
        "4",
        "57"
      ],
      [
        "4",
        "58"
      ],
      [
        "4",
        "59"
      ],
      [
        "4",
        "67"
      ],
      [
        "4",
        "68"
      ],
      [
        "4",
        "69"
      ],
      [
        "5",
        "màu"
      ],
      [
        "5",
        "10"
      ],
      [
        "5",
        "30"
      ],
      [
        "5",
        "60"
      ],
      [
        "5",
        "19"
      ],
      [
        "5",
        "12"
      ],
      [
        "5",
        "32"
      ],
      [
        "5",
        "42"
      ],
      [
        "5",
        "52"
      ],
      [
        "5",
        "17"
      ],
      [
        "5",
        "18"
      ],
      [
        "5",
        "37"
      ],
      [
        "5",
        "38"
      ],
      [
        "5",
        "39"
      ],
      [
        "5",
        "40"
      ],
      [
        "5",
        "47"
      ],
      [
        "5",
        "48"
      ],
      [
        "5",
        "49"
      ],
      [
        "5",
        "50"
      ],
      [
        "5",
        "62"
      ],
      [
        "5",
        "57"
      ],
      [
        "5",
        "58"
      ],
      [
        "5",
        "59"
      ],
      [
        "5",
        "67"
      ],
      [
        "5",
        "68"
      ],
      [
        "5",
        "69"
      ],
      [
        "6",
        "10"
      ],
      [
        "6",
        "30"
      ],
      [
        "6",
        "60"
      ],
      [
        "6",
        "19"
      ],
      [
        "6",
        "12"
      ],
      [
        "6",
        "52"
      ],
      [
        "6",
        "17"
      ],
      [
        "6",
        "18"
      ],
      [
        "6",
        "37"
      ],
      [
        "6",
        "38"
      ],
      [
        "6",
        "39"
      ],
      [
        "6",
        "40"
      ],
      [
        "6",
        "47"
      ],
      [
        "6",
        "48"
      ],
      [
        "6",
        "49"
      ],
      [
        "6",
        "50"
      ],
      [
        "6",
        "62"
      ],
      [
        "6",
        "57"
      ],
      [
        "6",
        "58"
      ],
      [
        "6",
        "59"
      ],
      [
        "6",
        "67"
      ],
      [
        "6",
        "68"
      ],
      [
        "6",
        "69"
      ],
      [
        "9",
        "không"
      ],
      [
        "C",
        "ách"
      ],
      [
        "D",
        "ùng"
      ],
      [
        "W",
        "eb"
      ],
      [
        "c",
        "ò"
      ],
      [
        "d",
        "ài"
      ],
      [
        "d",
        "ừng"
      ],
      [
        "e",
        "a"
      ],
      [
        "g",
        "ra"
      ],
      [
        "h",
        "ỗ"
      ],
      [
        "k",
        "e"
      ],
      [
        "l",
        "iệu"
      ],
      [
        "m",
        "in"
      ],
      [
        "n",
        "am"
      ],
      [
        "r",
        "g"
      ],
      [
        "r",
        "i"
      ],
      [
        "s",
        "t"
      ],
      [
        "s",
        "u"
      ],
      [
        "s",
        "tic"
      ],
      [
        "t",
        "ội"
      ],
      [
        "v",
        "ời"
      ],
      [
        "v",
        "ẫn"
      ],
      [
        "é",
        "t"
      ],
      [
        "Đ",
        "ối"
      ],
      [
        "ộ",
        "n"
      ],
      [
        "ng",
        "à"
      ],
      [
        "ch",
        "âu"
      ],
      [
        "tr",
        "inh"
      ],
      [
        "lã",
        "nh"
      ],
      [
        "đị",
        "a"
      ],
      [
        "di",
        "ent"
      ],
      [
        "tuy",
        "ệt"
      ],
      [
        "Web",
        "site"
      ],
      [
        "cò",
        "n"
      ],
      [
        "gra",
        "dient"
      ],
      [
        "0",
        "không"
      ],
      [
        "3",
        "màu"
      ],
      [
        "5",
        "không"
      ],
      [
        "6",
        "màu"
      ],
      [
        "6",
        "nào"
      ],
      [
        "B",
        "ao"
      ],
      [
        "L",
        "ED"
      ],
      [
        "b",
        "ấm"
      ],
      [
        "b",
        "ãi"
      ],
      [
        "b",
        "ão"
      ],
      [
        "c",
        "on"
      ],
      [
        "c",
        "ar"
      ],
      [
        "d",
        "ây"
      ],
      [
        "g",
        "ồ"
      ],
      [
        "n",
        "ếu"
      ],
      [
        "o",
        "me"
      ],
      [
        "ạ",
        "p"
      ],
      [
        "ẩ",
        "u"
      ],
      [
        "ố",
        "t"
      ],
      [
        "th",
        "ách"
      ],
      [
        "tr",
        "ụ"
      ],
      [
        "ph",
        "ép"
      ],
      [
        "kh",
        "ẩu"
      ],
      [
        "thi",
        "ền"
      ],
      [
        "qu",
        "ê"
      ],
      [
        "qu",
        "ái"
      ],
      [
        "al",
        "a"
      ],
      [
        "Th",
        "ể"
      ],
      [
        "nhu",
        "ận"
      ],
      [
        "min",
        "t"
      ],
      [
        "gồ",
        "m"
      ],
      [
        "2",
        "không"
      ],
      [
        "3",
        "gì"
      ],
      [
        "4",
        "nào"
      ],
      [
        "4",
        "gì"
      ],
      [
        "5",
        "gì"
      ],
      [
        "7",
        "màu"
      ],
      [
        "8",
        "nào"
      ],
      [
        "B",
        "ắt"
      ],
      [
        "C",
        "ần"
      ],
      [
        "b",
        "ùng"
      ],
      [
        "b",
        "ày"
      ],
      [
        "c",
        "ạnh"
      ],
      [
        "d",
        "ữ"
      ],
      [
        "d",
        "iệu"
      ],
      [
        "d",
        "inh"
      ],
      [
        "d",
        "ũng"
      ],
      [
        "e",
        "ster"
      ],
      [
        "i",
        "c"
      ],
      [
        "l",
        "ệ"
      ],
      [
        "l",
        "ấp"
      ],
      [
        "m",
        "ờ"
      ],
      [
        "m",
        "ặc"
      ],
      [
        "m",
        "ỏi"
      ],
      [
        "n",
        "ổ"
      ],
      [
        "p",
        "H"
      ],
      [
        "p",
        "e"
      ],
      [
        "r",
        "e"
      ],
      [
        "r",
        "u"
      ],
      [
        "r",
        "ổ"
      ],
      [
        "s",
        "ợ"
      ],
      [
        "s",
        "ứ"
      ],
      [
        "s",
        "ủa"
      ],
      [
        "s",
        "ẫm"
      ],
      [
        "t",
        "ò"
      ],
      [
        "t",
        "ỷ"
      ],
      [
        "t",
        "ảng"
      ],
      [
        "t",
        "ăm"
      ],
      [
        "đ",
        "ánh"
      ],
      [
        "ằ",
        "m"
      ],
      [
        "th",
        "ản"
      ],
      [
        "tr",
        "a"
      ],
      [
        "kh",
        "uy"
      ],
      [
        "an",
        "d"
      ],
      [
        "lá",
        "i"
      ],
      [
        "lá",
        "nh"
      ],
      [
        "in",
        "di"
      ],
      [
        "chi",
        "ếu"
      ],
      [
        "ro",
        "bo"
      ],
      [
        "thủ",
        "y"
      ],
      [
        "chí",
        "n"
      ],
      [
        "indi",
        "e"
      ],
      [
        "robo",
        "t"
      ],
      [
        ")",
        ","
      ],
      [
        "1",
        "màu"
      ],
      [
        "1",
        "không"
      ],
      [
        "1",
        "gì"
      ],
      [
        "3",
        "chọn"
      ],
      [
        "7",
        "nào"
      ],
      [
        "9",
        "nào"
      ],
      [
        "C",
        "T"
      ],
      [
        "M",
        "i"
      ],
      [
        "b",
        "ay"
      ],
      [
        "b",
        "àn"
      ],
      [
        "c",
        "y"
      ],
      [
        "c",
        "ủ"
      ],
      [
        "c",
        "ăn"
      ],
      [
        "d",
        "ược"
      ],
      [
        "d",
        "âu"
      ],
      [
        "d",
        "ân"
      ],
      [
        "d",
        "ấu"
      ],
      [
        "g",
        "ối"
      ],
      [
        "h",
        "iển"
      ],
      [
        "k",
        "al"
      ],
      [
        "l",
        "ạ"
      ],
      [
        "l",
        "iệt"
      ],
      [
        "l",
        "ỗi"
      ],
      [
        "m",
        "ò"
      ],
      [
        "m",
        "ục"
      ],
      [
        "m",
        "óc"
      ],
      [
        "m",
        "ãnh"
      ],
      [
        "n",
        "ão"
      ],
      [
        "s",
        "ảng"
      ],
      [
        "s",
        "au"
      ],
      [
        "t",
        "ắc"
      ],
      [
        "v",
        "ai"
      ],
      [
        "v",
        "ượt"
      ],
      [
        "x",
        "ỉ"
      ],
      [
        "ý",
        "t"
      ],
      [
        "đ",
        "ảo"
      ],
      [
        "ẹ",
        "o"
      ],
      [
        "⁺",
        ")."
      ],
      [
        "ng",
        "ô"
      ],
      [
        "th",
        "ơ"
      ],
      [
        "nh",
        "ã"
      ],
      [
        "nh",
        "ập"
      ],
      [
        "nh",
        "ộn"
      ],
      [
        "ch",
        "ở"
      ],
      [
        "ch",
        "uối"
      ],
      [
        "tr",
        "i"
      ],
      [
        "ph",
        "í"
      ],
      [
        "ho",
        "àn"
      ],
      [
        "iể",
        "u"
      ],
      [
        "ngh",
        "iên"
      ],
      [
        "độ",
        "t"
      ],
      [
        "thu",
        "ần"
      ],
      [
        "bu",
        "ýt"
      ],
      [
        "kho",
        "ác"
      ],
      [
        "kho",
        "ái"
      ],
      [
        "mi",
        "ễn"
      ],
      [
        "CT",
        "A"
      ],
      [
        "kal",
        "i"
      ],
      [
        "0",
        "nào"
      ],
      [
        "1",
        "chọn"
      ],
      [
        "2",
        "gì"
      ],
      [
        "3",
        "sắc"
      ],
      [
        "6",
        "sắc"
      ],
      [
        "8",
        "màu"
      ],
      [
        "9",
        "màu"
      ],
      [
        "B",
        "o"
      ],
      [
        "C",
        "ả"
      ],
      [
        "H",
        "o"
      ],
      [
        "S",
        "inh"
      ],
      [
        "b",
        "ã"
      ],
      [
        "b",
        "ơi"
      ],
      [
        "c",
        "ối"
      ],
      [
        "c",
        "ung"
      ],
      [
        "c",
        "al"
      ],
      [
        "d",
        "ạo"
      ],
      [
        "h",
        "ã"
      ],
      [
        "k",
        "é"
      ],
      [
        "k",
        "ẹo"
      ],
      [
        "m",
        "ì"
      ],
      [
        "m",
        "ị"
      ],
      [
        "m",
        "ạc"
      ],
      [
        "m",
        "óng"
      ],
      [
        "n",
        "i"
      ],
      [
        "n",
        "ướng"
      ],
      [
        "n",
        "ét"
      ],
      [
        "r",
        "s"
      ],
      [
        "r",
        "ừng"
      ],
      [
        "s",
        "o"
      ],
      [
        "s",
        "y"
      ],
      [
        "s",
        "ơn"
      ],
      [
        "s",
        "ắt"
      ],
      [
        "t",
        "ay"
      ],
      [
        "t",
        "au"
      ],
      [
        "t",
        "ắn"
      ],
      [
        "u",
        "n"
      ],
      [
        "v",
        "ang"
      ],
      [
        "w",
        "e"
      ],
      [
        "ô",
        "n"
      ],
      [
        "ù",
        "y"
      ],
      [
        "đ",
        "ón"
      ],
      [
        "ả",
        "y"
      ],
      [
        "ộ",
        "t"
      ],
      [
        "ng",
        "o"
      ],
      [
        "ng",
        "ôi"
      ],
      [
        "ch",
        "ung"
      ],
      [
        "ch",
        "im"
      ],
      [
        "ch",
        "án"
      ],
      [
        "ch",
        "ào"
      ],
      [
        "kh",
        "ai"
      ],
      [
        "kh",
        "iển"
      ],
      [
        "thi",
        "êng"
      ],
      [
        "ho",
        "àng"
      ],
      [
        "mộ",
        "c"
      ],
      [
        "te",
        "in"
      ],
      [
        "thị",
        "t"
      ],
      [
        "trẻ",
        "o"
      ],
      [
        "đậ",
        "u"
      ],
      [
        "39",
        "chọn"
      ],
      [
        "ai",
        "l"
      ],
      [
        "Tr",
        "ong"
      ],
      [
        "dư",
        "ới"
      ],
      [
        "chu",
        "ông"
      ],
      [
        "ta",
        "xi"
      ],
      [
        "li",
        "ền"
      ],
      [
        "Th",
        "ay"
      ],
      [
        "ro",
        "ck"
      ],
      [
        "su",
        "ất"
      ],
      [
        "tau",
        "pe"
      ],
      [
        "0",
        "gì"
      ],
      [
        "1",
        "sắc"
      ],
      [
        "1",
        "33"
      ],
      [
        "1",
        "44"
      ],
      [
        "1",
        "55"
      ],
      [
        "1",
        "66"
      ],
      [
        "2",
        "11"
      ],
      [
        "2",
        "33"
      ],
      [
        "2",
        "44"
      ],
      [
        "2",
        "55"
      ],
      [
        "2",
        "66"
      ],
      [
        "3",
        "chủ"
      ],
      [
        "3",
        "11"
      ],
      [
        "3",
        "44"
      ],
      [
        "3",
        "55"
      ],
      [
        "3",
        "66"
      ],
      [
        "4",
        "11"
      ],
      [
        "4",
        "33"
      ],
      [
        "4",
        "55"
      ],
      [
        "4",
        "66"
      ],
      [
        "5",
        "sự"
      ],
      [
        "5",
        "11"
      ],
      [
        "5",
        "33"
      ],
      [
        "5",
        "44"
      ],
      [
        "5",
        "66"
      ],
      [
        "6",
        "11"
      ],
      [
        "6",
        "33"
      ],
      [
        "6",
        "44"
      ],
      [
        "6",
        "55"
      ],
      [
        "6",
        "phố"
      ],
      [
        "7",
        "sắc"
      ],
      [
        "8",
        "gì"
      ],
      [
        "9",
        "gì"
      ],
      [
        "H",
        "al"
      ],
      [
        "R",
        "e"
      ],
      [
        "T",
        "ông"
      ],
      [
        "c",
        "e"
      ],
      [
        "c",
        "áp"
      ],
      [
        "c",
        "ập"
      ],
      [
        "c",
        "uối"
      ],
      [
        "g",
        "ala"
      ],
      [
        "h",
        "à"
      ],
      [
        "h",
        "ải"
      ],
      [
        "l",
        "ơ"
      ],
      [
        "l",
        "âu"
      ],
      [
        "l",
        "av"
      ],
      [
        "m",
        "ệt"
      ],
      [
        "n",
        "ản"
      ],
      [
        "n",
        "ấu"
      ],
      [
        "r",
        "ốt"
      ],
      [
        "t",
        "ây"
      ],
      [
        "t",
        "iệm"
      ],
      [
        "t",
        "ùy"
      ],
      [
        "t",
        "ail"
      ],
      [
        "v",
        "ậy"
      ],
      [
        "x",
        "o"
      ],
      [
        "x",
        "ung"
      ],
      [
        "x",
        "ấu"
      ],
      [
        "Â",
        "u"
      ],
      [
        "đ",
        "ai"
      ],
      [
        "đ",
        "ạp"
      ],
      [
        "ấ",
        "c"
      ],
      [
        "ắ",
        "p"
      ],
      [
        "ụ",
        "p"
      ],
      [
        "th",
        "ờ"
      ],
      [
        "th",
        "ấp"
      ],
      [
        "th",
        "iệp"
      ],
      [
        "th",
        "ập"
      ],
      [
        "th",
        "ánh"
      ],
      [
        "ch",
        "ữa"
      ],
      [
        "ch",
        "ụp"
      ],
      [
        "tr",
        "ại"
      ],
      [
        "tr",
        "iết"
      ],
      [
        "gi",
        "ấc"
      ],
      [
        "ph",
        "áp"
      ],
      [
        "ph",
        "ớt"
      ],
      [
        "ph",
        "ạm"
      ],
      [
        "kh",
        "ung"
      ],
      [
        "ho",
        "p"
      ],
      [
        "ti",
        "ế"
      ],
      [
        "lo",
        "we"
      ],
      [
        "19",
        "nào"
      ],
      [
        "vi",
        "êm"
      ],
      [
        "13",
        "5"
      ],
      [
        "13",
        "không"
      ],
      [
        "14",
        "1"
      ],
      [
        "14",
        "3"
      ],
      [
        "14",
        "5"
      ],
      [
        "14",
        "6"
      ],
      [
        "15",
        "1"
      ],
      [
        "15",
        "không"
      ],
      [
        "16",
        "3"
      ],
      [
        "chỉ",
        "nh"
      ],
      [
        "từ",
        "ng"
      ],
      [
        "khu",
        "ẩn"
      ],
      [
        "Tr",
        "ung"
      ],
      [
        "Tr",
        "ánh"
      ],
      [
        "co",
        "ck"
      ],
      [
        "al",
        "la"
      ],
      [
        "dị",
        "p"
      ],
      [
        "tu",
        "ệ"
      ],
      [
        "can",
        "xi"
      ],
      [
        "hỗ",
        "n"
      ],
      [
        "ome",
        "ga"
      ],
      [
        "ké",
        "m"
      ],
      [
        "ngo",
        "ại"
      ],
      [
        "Hal",
        "lowe"
      ],
      [
        "cock",
        "tail"
      ],
      [
        "Hallowe",
        "en"
      ],
      [
        "0",
        "màu"
      ],
      [
        "0",
        "sự"
      ],
      [
        "0",
        "sắc"
      ],
      [
        "1",
        "dùng"
      ],
      [
        "1",
        "chủ"
      ],
      [
        "2",
        "chủ"
      ],
      [
        "2",
        "34"
      ],
      [
        "2",
        "35"
      ],
      [
        "2",
        "36"
      ],
      [
        "2",
        "46"
      ],
      [
        "2",
        "45"
      ],
      [
        "2",
        "56"
      ],
      [
        "4",
        "chủ"
      ],
      [
        "4",
        "cổ"
      ],
      [
        "4",
        "34"
      ],
      [
        "4",
        "35"
      ],
      [
        "4",
        "36"
      ],
      [
        "5",
        "chủ"
      ],
      [
        "5",
        "34"
      ],
      [
        "5",
        "35"
      ],
      [
        "5",
        "36"
      ],
      [
        "5",
        "46"
      ],
      [
        "5",
        "45"
      ],
      [
        "6",
        "trong"
      ],
      [
        "6",
        "thuật"
      ],
      [
        "6",
        "34"
      ],
      [
        "6",
        "35"
      ],
      [
        "6",
        "36"
      ],
      [
        "6",
        "46"
      ],
      [
        "6",
        "45"
      ],
      [
        "6",
        "56"
      ],
      [
        "7",
        "chọn"
      ],
      [
        "9",
        "dùng"
      ],
      [
        "A",
        "ng"
      ],
      [
        "B",
        "lu"
      ],
      [
        "M",
        "an"
      ],
      [
        "N",
        "am"
      ],
      [
        "N",
        "ude"
      ],
      [
        "V",
        "iệt"
      ],
      [
        "a",
        "c"
      ],
      [
        "a",
        "co"
      ],
      [
        "a",
        "xi"
      ],
      [
        "c",
        "ùng"
      ],
      [
        "c",
        "úc"
      ],
      [
        "c",
        "ốc"
      ],
      [
        "d",
        "ạ"
      ],
      [
        "f",
        "an"
      ],
      [
        "h",
        "ương"
      ],
      [
        "h",
        "ảo"
      ],
      [
        "h",
        "ạt"
      ],
      [
        "h",
        "ưng"
      ],
      [
        "h",
        "and"
      ],
      [
        "k",
        "êu"
      ],
      [
        "l",
        "y"
      ],
      [
        "l",
        "an"
      ],
      [
        "n",
        "a"
      ],
      [
        "n",
        "ỗ"
      ],
      [
        "n",
        "iên"
      ],
      [
        "n",
        "ằm"
      ],
      [
        "o",
        "te"
      ],
      [
        "r",
        "d"
      ],
      [
        "s",
        "s"
      ],
      [
        "s",
        "ĩ"
      ],
      [
        "s",
        "ẵ"
      ],
      [
        "s",
        "on"
      ],
      [
        "s",
        "ta"
      ],
      [
        "s",
        "ea"
      ],
      [
        "s",
        "ắp"
      ],
      [
        "t",
        "ất"
      ],
      [
        "t",
        "iểu"
      ],
      [
        "u",
        "a"
      ],
      [
        "u",
        "stic"
      ],
      [
        "v",
        "ặt"
      ],
      [
        "x",
        "ử"
      ],
      [
        "²",
        "⁺)."
      ],
      [
        "í",
        "t"
      ],
      [
        "Đ",
        "ông"
      ],
      [
        "Đ",
        "ây"
      ],
      [
        "đ",
        "ế"
      ],
      [
        "đ",
        "ủ"
      ],
      [
        "đ",
        "ọng"
      ],
      [
        "đ",
        "iệu"
      ],
      [
        "ng",
        "ũ"
      ],
      [
        "ng",
        "ây"
      ],
      [
        "ng",
        "ẫm"
      ],
      [
        "th",
        "ụ"
      ],
      [
        "nh",
        "ờ"
      ],
      [
        "nh",
        "ắc"
      ],
      [
        "nh",
        "ám"
      ],
      [
        "nh",
        "iệm"
      ],
      [
        "ch",
        "ãi"
      ],
      [
        "ch",
        "ày"
      ],
      [
        "ch",
        "ester"
      ],
      [
        "tr",
        "o"
      ],
      [
        "tr",
        "ì"
      ],
      [
        "tr",
        "ợ"
      ],
      [
        "tr",
        "ữ"
      ],
      [
        "tr",
        "ôi"
      ],
      [
        "tr",
        "ống"
      ],
      [
        "gi",
        "stic"
      ],
      [
        "kh",
        "ói"
      ],
      [
        "ti",
        "ềm"
      ],
      [
        "te",
        "r"
      ],
      [
        "lo",
        "gistic"
      ],
      [
        "bộ",
        "cảm"
      ],
      [
        "19",
        "80"
      ],
      [
        "18",
        "trong"
      ],
      [
        "57",
        "không"
      ],
      [
        "13",
        "1"
      ],
      [
        "13",
        "4"
      ],
      [
        "15",
        "3"
      ],
      [
        "16",
        "1"
      ],
      [
        "16",
        "5"
      ],
      [
        "Ch",
        "el"
      ],
      [
        "be",
        "ta"
      ],
      [
        "56",
        "không"
      ],
      [
        "in",
        "a"
      ],
      [
        "di",
        "o"
      ],
      [
        "43",
        "chọn"
      ],
      [
        "Lo",
        "s"
      ],
      [
        "vị",
        "t"
      ],
      [
        "ta",
        "sy"
      ],
      [
        "li",
        "êng"
      ],
      [
        "ma",
        "de"
      ],
      [
        "mu",
        "sta"
      ],
      [
        "to",
        "án"
      ],
      [
        "mô",
        "n"
      ],
      [
        "el",
        "es"
      ],
      [
        "hi",
        "p"
      ],
      [
        "ri",
        "êng"
      ],
      [
        "st",
        "on"
      ],
      [
        "car",
        "ote"
      ],
      [
        "khuy",
        "ên"
      ],
      [
        "phí",
        "a"
      ],
      [
        "Bo",
        "ston"
      ],
      [
        "Ho",
        "a"
      ],
      [
        "hã",
        "ng"
      ],
      [
        "xo",
        "ăn"
      ],
      [
        "tiế",
        "ng"
      ],
      [
        "Ang",
        "eles"
      ],
      [
        "Blu",
        "e"
      ],
      [
        "Man",
        "chester"
      ],
      [
        "aco",
        "ustic"
      ],
      [
        "axi",
        "t"
      ],
      [
        "fan",
        "tasy"
      ],
      [
        "hand",
        "made"
      ],
      [
        "sẵ",
        "n"
      ],
      [
        "logistic",
        "s"
      ],
      [
        "Chel",
        "sea"
      ],
      [
        "musta",
        "rd"
      ],
      [
        "carote",
        "ne"
      ],
      [
        "0",
        "nên"
      ],
      [
        "0",
        "dùng"
      ],
      [
        "0",
        "với"
      ],
      [
        "1",
        "trong"
      ],
      [
        "1",
        "phố"
      ],
      [
        "2",
        "hiện"
      ],
      [
        "2",
        "thuật"
      ],
      [
        "2",
        "16"
      ],
      [
        "3",
        "nên"
      ],
      [
        "3",
        "13"
      ],
      [
        "4",
        "và"
      ],
      [
        "4",
        "sắc"
      ],
      [
        "4",
        "chọn"
      ],
      [
        "4",
        "với"
      ],
      [
        "4",
        "đại"
      ],
      [
        "4",
        "nghệ"
      ],
      [
        "5",
        "nên"
      ],
      [
        "5",
        "hiện"
      ],
      [
        "5",
        "dùng"
      ],
      [
        "5",
        "chọn"
      ],
      [
        "5",
        "gian"
      ],
      [
        "6",
        "hiện"
      ],
      [
        "6",
        "gì"
      ],
      [
        "6",
        "chủ"
      ],
      [
        "6",
        "hội"
      ],
      [
        "7",
        "dùng"
      ],
      [
        "7",
        "phẩm"
      ],
      [
        "7",
        "nghệ"
      ],
      [
        "7",
        "phòng"
      ],
      [
        "7",
        "điển"
      ],
      [
        "8",
        "sắc"
      ],
      [
        "8",
        "dùng"
      ],
      [
        "9",
        "sắc"
      ],
      [
        "9",
        "dụng"
      ],
      [
        "9",
        "chọn"
      ],
      [
        "9",
        "với"
      ],
      [
        "9",
        "phố"
      ],
      [
        "A",
        "rg"
      ],
      [
        "B",
        "ản"
      ],
      [
        "B",
        "ar"
      ],
      [
        "C",
        "ổ"
      ],
      [
        "C",
        "el"
      ],
      [
        "F",
        "i"
      ],
      [
        "H",
        "y"
      ],
      [
        "H",
        "ea"
      ],
      [
        "L",
        "ựa"
      ],
      [
        "L",
        "ạp"
      ],
      [
        "M",
        "ỹ"
      ],
      [
        "N",
        "e"
      ],
      [
        "N",
        "ó"
      ],
      [
        "R",
        "ome"
      ],
      [
        "S",
        "B"
      ],
      [
        "S",
        "an"
      ],
      [
        "U",
        "SB"
      ],
      [
        "W",
        "i"
      ],
      [
        "X",
        "u"
      ],
      [
        "a",
        "po"
      ],
      [
        "b",
        "y"
      ],
      [
        "b",
        "ồ"
      ],
      [
        "b",
        "ụ"
      ],
      [
        "b",
        "ách"
      ],
      [
        "b",
        "alla"
      ],
      [
        "c",
        "a"
      ],
      [
        "c",
        "i"
      ],
      [
        "c",
        "ấm"
      ],
      [
        "c",
        "ánh"
      ],
      [
        "c",
        "ướ"
      ],
      [
        "c",
        "ồn"
      ],
      [
        "d",
        "í"
      ],
      [
        "d",
        "ỏ"
      ],
      [
        "d",
        "áng"
      ],
      [
        "d",
        "en"
      ],
      [
        "g",
        "r"
      ],
      [
        "g",
        "an"
      ],
      [
        "g",
        "ay"
      ],
      [
        "h",
        "ủ"
      ],
      [
        "h",
        "ắc"
      ],
      [
        "i",
        "an"
      ],
      [
        "k",
        "iệm"
      ],
      [
        "k",
        "ar"
      ],
      [
        "l",
        "d"
      ],
      [
        "l",
        "l"
      ],
      [
        "l",
        "õ"
      ],
      [
        "l",
        "ối"
      ],
      [
        "l",
        "ester"
      ],
      [
        "m",
        "ạ"
      ],
      [
        "m",
        "en"
      ],
      [
        "m",
        "ảnh"
      ],
      [
        "n",
        "inh"
      ],
      [
        "o",
        "t"
      ],
      [
        "o",
        "th"
      ],
      [
        "o",
        "liu"
      ],
      [
        "p",
        "ro"
      ],
      [
        "p",
        "tic"
      ],
      [
        "p",
        "ur"
      ],
      [
        "p",
        "ic"
      ],
      [
        "r",
        "y"
      ],
      [
        "r",
        "ăng"
      ],
      [
        "r",
        "ệt"
      ],
      [
        "s",
        "ơ"
      ],
      [
        "s",
        "ổ"
      ],
      [
        "s",
        "en"
      ],
      [
        "s",
        "si"
      ],
      [
        "s",
        "ăn"
      ],
      [
        "s",
        "óng"
      ],
      [
        "s",
        "co"
      ],
      [
        "s",
        "ala"
      ],
      [
        "t",
        "s"
      ],
      [
        "t",
        "ật"
      ],
      [
        "t",
        "ổn"
      ],
      [
        "v",
        "ẽ"
      ],
      [
        "v",
        "ương"
      ],
      [
        "v",
        "ùng"
      ],
      [
        "x",
        "ế"
      ],
      [
        "x",
        "ác"
      ],
      [
        "x",
        "ách"
      ],
      [
        "x",
        "ét"
      ],
      [
        "y",
        "ptic"
      ],
      [
        "á",
        "y"
      ],
      [
        "đ",
        "ợi"
      ],
      [
        "đ",
        "úc"
      ],
      [
        "đ",
        "au"
      ],
      [
        "đ",
        "úng"
      ],
      [
        "đ",
        "ặt"
      ],
      [
        "ạ",
        "y"
      ],
      [
        "ặ",
        "p"
      ],
      [
        "ẹ",
        "n"
      ],
      [
        "ừ",
        "a"
      ],
      [
        "⁻",
        ")."
      ],
      [
        "ng",
        "ược"
      ],
      [
        "ng",
        "ăm"
      ],
      [
        "th",
        "ợ"
      ],
      [
        "th",
        "ác"
      ],
      [
        "th",
        "ây"
      ],
      [
        "th",
        "uy"
      ],
      [
        "th",
        "ắng"
      ],
      [
        "th",
        "iệu"
      ],
      [
        "nh",
        "a"
      ],
      [
        "nh",
        "ấp"
      ],
      [
        "nh",
        "ằm"
      ],
      [
        "nh",
        "ảy"
      ],
      [
        "nh",
        "áy"
      ],
      [
        "ch",
        "ợ"
      ],
      [
        "ch",
        "iên"
      ],
      [
        "ch",
        "ấp"
      ],
      [
        "ch",
        "ấn"
      ],
      [
        "ch",
        "ạy"
      ],
      [
        "tr",
        "áng"
      ],
      [
        "tr",
        "ách"
      ],
      [
        "gi",
        "ận"
      ],
      [
        "gi",
        "ằng"
      ],
      [
        "ph",
        "a"
      ],
      [
        "ph",
        "ủ"
      ],
      [
        "kh",
        "óa"
      ],
      [
        "cho",
        "lester"
      ],
      [
        "xanh",
        "được"
      ],
      [
        "an",
        "tho"
      ],
      [
        "an",
        "in"
      ],
      [
        "qu",
        "ản"
      ],
      [
        "am",
        "i"
      ],
      [
        "là",
        "giác"
      ],
      [
        "là",
        "lãng"
      ],
      [
        "sử",
        "a"
      ],
      [
        "uố",
        "c"
      ],
      [
        "nhạ",
        "y"
      ],
      [
        "ao",
        "ke"
      ],
      [
        "en",
        "tin"
      ],
      [
        "en",
        "de"
      ],
      [
        "Bạn",
        "những"
      ],
      [
        "lo",
        "na"
      ],
      [
        "bộ",
        "tạo"
      ],
      [
        "10",
        "không"
      ],
      [
        "60",
        "không"
      ],
      [
        "32",
        "trong"
      ],
      [
        "32",
        "không"
      ],
      [
        "17",
        "không"
      ],
      [
        "17",
        "nên"
      ],
      [
        "37",
        "nào"
      ],
      [
        "47",
        "nào"
      ],
      [
        "47",
        "không"
      ],
      [
        "49",
        "không"
      ],
      [
        "50",
        "chọn"
      ],
      [
        "57",
        "nào"
      ],
      [
        "57",
        "nên"
      ],
      [
        "67",
        "không"
      ],
      [
        "69",
        "chọn"
      ],
      [
        "tố",
        "c"
      ],
      [
        "khỏ",
        "i"
      ],
      [
        "po",
        "st"
      ],
      [
        "on",
        "i"
      ],
      [
        "on",
        "li"
      ],
      [
        "11",
        "không"
      ],
      [
        "33",
        "màu"
      ],
      [
        "44",
        "thiết"
      ],
      [
        "55",
        "chọn"
      ],
      [
        "13",
        "6"
      ],
      [
        "15",
        "4"
      ],
      [
        "16",
        "4"
      ],
      [
        "35",
        "không"
      ],
      [
        "hồ",
        "n"
      ],
      [
        "chi",
        "a"
      ],
      [
        "31",
        "nào"
      ],
      [
        "31",
        "không"
      ],
      [
        "41",
        "không"
      ],
      [
        "63",
        "nào"
      ],
      [
        "63",
        "thiết"
      ],
      [
        "25",
        "nào"
      ],
      [
        "25",
        "không"
      ],
      [
        "61",
        "nên"
      ],
      [
        "chu",
        "a"
      ],
      [
        "80",
        "không"
      ],
      [
        "89",
        "trong"
      ],
      [
        "tuy",
        "ết"
      ],
      [
        "04",
        "chọn"
      ],
      [
        "to",
        "oth"
      ],
      [
        "bo",
        "rg"
      ],
      [
        "bo",
        "ss"
      ],
      [
        "Nh",
        "ật"
      ],
      [
        "re",
        "tro"
      ],
      [
        "ru",
        "ột"
      ],
      [
        "tra",
        "t"
      ],
      [
        "khuy",
        "ết"
      ],
      [
        "Mi",
        "lan"
      ],
      [
        "Mi",
        "ami"
      ],
      [
        "cy",
        "anin"
      ],
      [
        "cy",
        "borg"
      ],
      [
        "cal",
        "yptic"
      ],
      [
        "ni",
        "trat"
      ],
      [
        "Re",
        "d"
      ],
      [
        "ce",
        "lona"
      ],
      [
        "lav",
        "ende"
      ],
      [
        "Blue",
        "tooth"
      ],
      [
        "Arg",
        "entin"
      ],
      [
        "Bar",
        "celona"
      ],
      [
        "Cel",
        "tic"
      ],
      [
        "Hea",
        "t"
      ],
      [
        "Ne",
        "w"
      ],
      [
        "apo",
        "calyptic"
      ],
      [
        "bồ",
        "i"
      ],
      [
        "balla",
        "d"
      ],
      [
        "cướ",
        "p"
      ],
      [
        "dỏ",
        "m"
      ],
      [
        "gr",
        "am"
      ],
      [
        "hủ",
        "y"
      ],
      [
        "kar",
        "aoke"
      ],
      [
        "men",
        "u"
      ],
      [
        "pro",
        "tein"
      ],
      [
        "sala",
        "d"
      ],
      [
        "thuy",
        "ết"
      ],
      [
        "cholester",
        "ol"
      ],
      [
        "antho",
        "cyanin"
      ],
      [
        "onli",
        "ne"
      ],
      [
        "lavende",
        "r"
      ],
      [
        "Argentin",
        "a"
      ],
      [
        "anthocyanin",
        "s"
      ],
      [
        "\"",
        ","
      ],
      [
        "0",
        "tạo"
      ],
      [
        "0",
        "trong"
      ],
      [
        "0",
        "gian"
      ],
      [
        "0",
        "trang"
      ],
      [
        "0",
        "thuật"
      ],
      [
        "0",
        "này"
      ],
      [
        "1",
        "nên"
      ],
      [
        "1",
        "đại"
      ],
      [
        "1",
        "nghệ"
      ],
      [
        "1",
        "nhiên"
      ],
      [
        "1",
        "thuật"
      ],
      [
        "1",
        "thao"
      ],
      [
        "1",
        "này"
      ],
      [
        "1",
        "khỏe"
      ],
      [
        "1",
        "đường"
      ],
      [
        "2",
        "nào"
      ],
      [
        "2",
        "sắc"
      ],
      [
        "2",
        "nên"
      ],
      [
        "2",
        "phòng"
      ],
      [
        "2",
        "nghiệp"
      ],
      [
        "2",
        "sinh"
      ],
      [
        "2",
        "đồng"
      ],
      [
        "2",
        "54"
      ],
      [
        "2",
        "65"
      ],
      [
        "2",
        "64"
      ],
      [
        "2",
        "tuyến"
      ],
      [
        "3",
        "và"
      ],
      [
        "3",
        "hiện"
      ],
      [
        "3",
        "dụng"
      ],
      [
        "3",
        "đại"
      ],
      [
        "3",
        "nghệ"
      ],
      [
        "3",
        "này"
      ],
      [
        "3",
        "15"
      ],
      [
        "3",
        "đường"
      ],
      [
        "3",
        "cộng"
      ],
      [
        "4",
        "sự"
      ],
      [
        "4",
        "kế"
      ],
      [
        "4",
        "dùng"
      ],
      [
        "4",
        "nghiệp"
      ],
      [
        "4",
        "nhạc"
      ],
      [
        "4",
        "đồng"
      ],
      [
        "4",
        "phố"
      ],
      [
        "5",
        "và"
      ],
      [
        "5",
        "sắc"
      ],
      [
        "5",
        "thiết"
      ],
      [
        "5",
        "phẩm"
      ],
      [
        "5",
        "với"
      ],
      [
        "5",
        "này"
      ],
      [
        "5",
        "tượng"
      ],
      [
        "6",
        "dùng"
      ],
      [
        "6",
        "phẩm"
      ],
      [
        "6",
        "chọn"
      ],
      [
        "6",
        "với"
      ],
      [
        "6",
        "gian"
      ],
      [
        "6",
        "khách"
      ],
      [
        "6",
        "54"
      ],
      [
        "7",
        "với"
      ],
      [
        "7",
        "nhiên"
      ],
      [
        "7",
        "chủ"
      ],
      [
        "8",
        "nên"
      ],
      [
        "8",
        "dụng"
      ],
      [
        "8",
        "chọn"
      ],
      [
        "8",
        "với"
      ],
      [
        "8",
        "nghệ"
      ],
      [
        "8",
        "chủ"
      ],
      [
        "8",
        "em"
      ],
      [
        "9",
        "phẩm"
      ],
      [
        "9",
        "chủ"
      ],
      [
        "A",
        "n"
      ],
      [
        "B",
        "6"
      ],
      [
        "B",
        "e"
      ],
      [
        "B",
        "ạc"
      ],
      [
        "C",
        "M"
      ],
      [
        "L",
        "a"
      ],
      [
        "M",
        "a"
      ],
      [
        "M",
        "ặc"
      ],
      [
        "M",
        "ua"
      ],
      [
        "N",
        "ước"
      ],
      [
        "S",
        "e"
      ],
      [
        "S",
        "ox"
      ],
      [
        "U",
        "ni"
      ],
      [
        "V",
        "iệc"
      ],
      [
        "Y",
        "K"
      ],
      [
        "a",
        "z"
      ],
      [
        "b",
        "è"
      ],
      [
        "b",
        "ơ"
      ],
      [
        "b",
        "ờ"
      ],
      [
        "b",
        "ên"
      ],
      [
        "b",
        "ông"
      ],
      [
        "b",
        "ối"
      ],
      [
        "b",
        "ào"
      ],
      [
        "b",
        "ina"
      ],
      [
        "c",
        "ú"
      ],
      [
        "c",
        "ỏ"
      ],
      [
        "c",
        "ố"
      ],
      [
        "c",
        "ái"
      ],
      [
        "c",
        "ứng"
      ],
      [
        "d",
        "y"
      ],
      [
        "d",
        "ù"
      ],
      [
        "d",
        "ại"
      ],
      [
        "d",
        "ro"
      ],
      [
        "e",
        "r"
      ],
      [
        "f",
        "a"
      ],
      [
        "g",
        "ọn"
      ],
      [
        "g",
        "ấp"
      ],
      [
        "h",
        "u"
      ],
      [
        "h",
        "ậ"
      ],
      [
        "h",
        "ết"
      ],
      [
        "h",
        "ãi"
      ],
      [
        "i",
        "d"
      ],
      [
        "j",
        "az"
      ],
      [
        "k",
        "ý"
      ],
      [
        "k",
        "iể"
      ],
      [
        "l",
        "ó"
      ],
      [
        "l",
        "ự"
      ],
      [
        "l",
        "ang"
      ],
      [
        "l",
        "ùng"
      ],
      [
        "l",
        "ấy"
      ],
      [
        "l",
        "la"
      ],
      [
        "m",
        "ong"
      ],
      [
        "m",
        "ắc"
      ],
      [
        "m",
        "ỗi"
      ],
      [
        "m",
        "ượt"
      ],
      [
        "n",
        "u"
      ],
      [
        "n",
        "ở"
      ],
      [
        "n",
        "ồng"
      ],
      [
        "o",
        "ải"
      ],
      [
        "r",
        "ác"
      ],
      [
        "r",
        "ắn"
      ],
      [
        "s",
        "ỡ"
      ],
      [
        "s",
        "ặc"
      ],
      [
        "s",
        "uố"
      ],
      [
        "s",
        "ốc"
      ],
      [
        "s",
        "uối"
      ],
      [
        "t",
        "ị"
      ],
      [
        "t",
        "àu"
      ],
      [
        "t",
        "ao"
      ],
      [
        "t",
        "án"
      ],
      [
        "t",
        "ộc"
      ],
      [
        "u",
        "m"
      ],
      [
        "v",
        "ở"
      ],
      [
        "v",
        "iệt"
      ],
      [
        "x",
        "é"
      ],
      [
        "ú",
        "i"
      ],
      [
        "Đ",
        "ức"
      ],
      [
        "đ",
        "ền"
      ],
      [
        "đ",
        "óng"
      ],
      [
        "đ",
        "ãi"
      ],
      [
        "đ",
        "ói"
      ],
      [
        "đ",
        "ạm"
      ],
      [
        "ẫ",
        "u"
      ],
      [
        "ậ",
        "m"
      ],
      [
        "ị",
        "p"
      ],
      [
        "ớ",
        "p"
      ],
      [
        "ng",
        "ăn"
      ],
      [
        "th",
        "ải"
      ],
      [
        "nh",
        "o"
      ],
      [
        "nh",
        "út"
      ],
      [
        "nh",
        "ịp"
      ],
      [
        "ch",
        "ật"
      ],
      [
        "ch",
        "ội"
      ],
      [
        "ch",
        "ậm"
      ],
      [
        "tr",
        "ộn"
      ],
      [
        "ph",
        "óng"
      ],
      [
        "kh",
        "áng"
      ],
      [
        "kh",
        "án"
      ],
      [
        "kh",
        "ớp"
      ],
      [
        "cho",
        "giác"
      ],
      [
        "kế",
        "trọng"
      ],
      [
        "qu",
        "ất"
      ],
      [
        "ngh",
        "e"
      ],
      [
        "ti",
        "on"
      ],
      [
        "te",
        "d"
      ],
      [
        "nghệ",
        "cảm"
      ],
      [
        "nhẹ",
        "n"
      ],
      [
        "10",
        "nghệ"
      ],
      [
        "30",
        "màu"
      ],
      [
        "30",
        "chọn"
      ],
      [
        "19",
        "thiết"
      ],
      [
        "19",
        "chọn"
      ],
      [
        "12",
        "không"
      ],
      [
        "12",
        "phẩm"
      ],
      [
        "52",
        "thiết"
      ],
      [
        "52",
        "chọn"
      ],
      [
        "18",
        "không"
      ],
      [
        "37",
        "không"
      ],
      [
        "37",
        "nên"
      ],
      [
        "37",
        "chọn"
      ],
      [
        "38",
        "màu"
      ],
      [
        "38",
        "trong"
      ],
      [
        "39",
        "nào"
      ],
      [
        "47",
        "chọn"
      ],
      [
        "47",
        "thuật"
      ],
      [
        "48",
        "nào"
      ],
      [
        "48",
        "không"
      ],
      [
        "48",
        "chọn"
      ],
      [
        "49",
        "nào"
      ],
      [
        "49",
        "chọn"
      ],
      [
        "49",
        "điển"
      ],
      [
        "50",
        "không"
      ],
      [
        "62",
        "trong"
      ],
      [
        "62",
        "phẩm"
      ],
      [
        "57",
        "7"
      ],
      [
        "57",
        "9"
      ],
      [
        "58",
        "không"
      ],
      [
        "58",
        "phòng"
      ],
      [
        "67",
        "chọn"
      ],
      [
        "68",
        "thiết"
      ],
      [
        "69",
        "không"
      ],
      [
        "quy",
        "ện"
      ],
      [
        "po",
        "ly"
      ],
      [
        "on",
        "o"
      ],
      [
        "huy",
        "nh"
      ],
      [
        "11",
        "màu"
      ],
      [
        "11",
        "nên"
      ],
      [
        "33",
        "nào"
      ],
      [
        "33",
        "nên"
      ],
      [
        "55",
        "không"
      ],
      [
        "27",
        "không"
      ],
      [
        "29",
        "không"
      ],
      [
        "13",
        "nào"
      ],
      [
        "14",
        "màu"
      ],
      [
        "14",
        "không"
      ],
      [
        "14",
        "chọn"
      ],
      [
        "14",
        "công"
      ],
      [
        "15",
        "6"
      ],
      [
        "15",
        "nào"
      ],
      [
        "15",
        "nên"
      ],
      [
        "15",
        "phẩm"
      ],
      [
        "gia",
        "i"
      ],
      [
        "Ch",
        "úng"
      ],
      [
        "mà",
        "n"
      ],
      [
        "34",
        "trong"
      ],
      [
        "35",
        "nên"
      ],
      [
        "35",
        "chọn"
      ],
      [
        "bu",
        "ộc"
      ],
      [
        "bu",
        "rg"
      ],
      [
        "46",
        "không"
      ],
      [
        "45",
        "không"
      ],
      [
        "45",
        "phẩm"
      ],
      [
        "45",
        "chọn"
      ],
      [
        "56",
        "gian"
      ],
      [
        "70",
        "trong"
      ],
      [
        "70",
        "thao"
      ],
      [
        "54",
        "chọn"
      ],
      [
        "65",
        "nào"
      ],
      [
        "65",
        "trong"
      ],
      [
        "31",
        "trong"
      ],
      [
        "31",
        "chọn"
      ],
      [
        "43",
        "không"
      ],
      [
        "26",
        "phẩm"
      ],
      [
        "51",
        "thiết"
      ],
      [
        "61",
        "không"
      ],
      [
        "23",
        "không"
      ],
      [
        "trạng",
        "mang"
      ],
      [
        "trạng",
        "vẻ"
      ],
      [
        "77",
        "nào"
      ],
      [
        "77",
        "không"
      ],
      [
        "78",
        "trong"
      ],
      [
        "lớp",
        "khí"
      ],
      [
        "01",
        "không"
      ],
      [
        "07",
        "trong"
      ],
      [
        "09",
        "nào"
      ],
      [
        "09",
        "chọn"
      ],
      [
        "73",
        "không"
      ],
      [
        "73",
        "thiết"
      ],
      [
        "81",
        "nên"
      ],
      [
        "85",
        "trong"
      ],
      [
        "95",
        "trong"
      ],
      [
        "75",
        "chọn"
      ],
      [
        "76",
        "không"
      ],
      [
        "91",
        "nào"
      ],
      [
        "91",
        "thiết"
      ],
      [
        "Th",
        "êm"
      ],
      [
        "Th",
        "iết"
      ],
      [
        "má",
        "u"
      ],
      [
        "ck",
        "dro"
      ],
      [
        "la",
        "te"
      ],
      [
        "đo",
        "ạn"
      ],
      [
        "ba",
        "ckdro"
      ],
      [
        "duy",
        "ệt"
      ],
      [
        "or",
        "k"
      ],
      [
        "or",
        "t"
      ],
      [
        "hi",
        "ếu"
      ],
      [
        "lu",
        "tein"
      ],
      [
        "ke",
        "rs"
      ],
      [
        "car",
        "dio"
      ],
      [
        "so",
        "fa"
      ],
      [
        "un",
        "dy"
      ],
      [
        "CM",
        "YK"
      ],
      [
        "La",
        "kers"
      ],
      [
        "Uni",
        "ted"
      ],
      [
        "hậ",
        "u"
      ],
      [
        "jaz",
        "z"
      ],
      [
        "kiể",
        "m"
      ],
      [
        "ló",
        "t"
      ],
      [
        "lự",
        "u"
      ],
      [
        "nu",
        "ôi"
      ],
      [
        "suố",
        "t"
      ],
      [
        "tị",
        "nh"
      ],
      [
        "burg",
        "undy"
      ],
      [
        "backdro",
        "p"
      ],
      [
        "\"",
        "?"
      ],
      [
        ")",
        "?"
      ],
      [
        "0",
        "và"
      ],
      [
        "0",
        "các"
      ],
      [
        "0",
        "thiết"
      ],
      [
        "0",
        "phẩm"
      ],
      [
        "0",
        "công"
      ],
      [
        "0",
        "quảng"
      ],
      [
        "0",
        "chủ"
      ],
      [
        "0",
        "phòng"
      ],
      [
        "0",
        "nghiệp"
      ],
      [
        "0",
        "thời"
      ],
      [
        "1",
        "và"
      ],
      [
        "1",
        "sự"
      ],
      [
        "1",
        "thiết"
      ],
      [
        "1",
        "vàng"
      ],
      [
        "1",
        "phẩm"
      ],
      [
        "1",
        "là"
      ],
      [
        "1",
        "sử"
      ],
      [
        "1",
        "với"
      ],
      [
        "1",
        "trang"
      ],
      [
        "1",
        "trọng"
      ],
      [
        "1",
        "ấm"
      ],
      [
        "1",
        "sức"
      ],
      [
        "1",
        "nhân"
      ],
      [
        "1",
        "đồ"
      ],
      [
        "1",
        "học"
      ],
      [
        "1",
        "hội"
      ],
      [
        "1",
        "loại"
      ],
      [
        "1",
        "cận"
      ],
      [
        "1",
        "dưỡng"
      ],
      [
        "1",
        "đâu"
      ],
      [
        "2",
        "và"
      ],
      [
        "2",
        "sự"
      ],
      [
        "2",
        "dụng"
      ],
      [
        "2",
        "dùng"
      ],
      [
        "2",
        "phẩm"
      ],
      [
        "2",
        "chọn"
      ],
      [
        "2",
        "công"
      ],
      [
        "2",
        "nghệ"
      ],
      [
        "2",
        "website"
      ],
      [
        "2",
        "thao"
      ],
      [
        "2",
        "hiệu"
      ],
      [
        "2",
        "nhạc"
      ],
      [
        "2",
        "này"
      ],
      [
        "2",
        "hội"
      ],
      [
        "2",
        "hóa"
      ],
      [
        "2",
        "vững"
      ],
      [
        "2",
        "điểm"
      ],
      [
        "2",
        "điện"
      ],
      [
        "3",
        "giác"
      ],
      [
        "3",
        "dùng"
      ],
      [
        "3",
        "gian"
      ],
      [
        "3",
        "như"
      ],
      [
        "3",
        "làm"
      ],
      [
        "3",
        "kiện"
      ],
      [
        "3",
        "thuật"
      ],
      [
        "3",
        "những"
      ],
      [
        "3",
        "phòng"
      ],
      [
        "3",
        "cổ"
      ],
      [
        "3",
        "sức"
      ],
      [
        "3",
        "hội"
      ],
      [
        "3",
        "loại"
      ],
      [
        "3",
        "nội"
      ],
      [
        "3",
        "đồng"
      ],
      [
        "3",
        "hình"
      ],
      [
        "3",
        "ngoài"
      ],
      [
        "3",
        "phố"
      ],
      [
        "3",
        "tử"
      ],
      [
        "3",
        "đáo"
      ],
      [
        "4",
        "giác"
      ],
      [
        "4",
        "thiết"
      ],
      [
        "4",
        "dụng"
      ],
      [
        "4",
        "sử"
      ],
      [
        "4",
        "cáo"
      ],
      [
        "4",
        "tự"
      ],
      [
        "4",
        "người"
      ],
      [
        "4",
        "sống"
      ],
      [
        "4",
        "này"
      ],
      [
        "4",
        "hội"
      ],
      [
        "4",
        "15"
      ],
      [
        "4",
        "đường"
      ],
      [
        "5",
        "cho"
      ],
      [
        "5",
        "trong"
      ],
      [
        "5",
        "kế"
      ],
      [
        "5",
        "ẩm"
      ],
      [
        "5",
        "thị"
      ],
      [
        "5",
        "đại"
      ],
      [
        "5",
        "nhiên"
      ],
      [
        "5",
        "những"
      ],
      [
        "5",
        "phòng"
      ],
      [
        "5",
        "thư"
      ],
      [
        "5",
        "trung"
      ],
      [
        "5",
        "lịch"
      ],
      [
        "5",
        "mùa"
      ],
      [
        "5",
        "nhạc"
      ],
      [
        "5",
        "học"
      ],
      [
        "5",
        "hội"
      ],
      [
        "5",
        "hóa"
      ],
      [
        "5",
        "vững"
      ],
      [
        "5",
        "tiếp"
      ],
      [
        "6",
        "giác"
      ],
      [
        "6",
        "nên"
      ],
      [
        "6",
        "kế"
      ],
      [
        "6",
        "động"
      ],
      [
        "6",
        "như"
      ],
      [
        "6",
        "công"
      ],
      [
        "6",
        "đại"
      ],
      [
        "6",
        "nghệ"
      ],
      [
        "6",
        "web"
      ],
      [
        "6",
        "phòng"
      ],
      [
        "6",
        "nghiệp"
      ],
      [
        "6",
        "này"
      ],
      [
        "6",
        "phim"
      ],
      [
        "6",
        "hấp"
      ],
      [
        "6",
        "thông"
      ],
      [
        "6",
        "huyền"
      ],
      [
        "7",
        "hiện"
      ],
      [
        "7",
        "gì"
      ],
      [
        "7",
        "gian"
      ],
      [
        "7",
        "áo"
      ],
      [
        "7",
        "cáo"
      ],
      [
        "7",
        "kiện"
      ],
      [
        "7",
        "giãn"
      ],
      [
        "7",
        "nghiệp"
      ],
      [
        "7",
        "thương"
      ],
      [
        "7",
        "em"
      ],
      [
        "7",
        "này"
      ],
      [
        "7",
        "hội"
      ],
      [
        "7",
        "đồng"
      ],
      [
        "7",
        "cộng"
      ],
      [
        "7",
        "mạch"
      ],
      [
        "7",
        "ngày"
      ],
      [
        "8",
        "trong"
      ],
      [
        "8",
        "hiện"
      ],
      [
        "8",
        "phẩm"
      ],
      [
        "8",
        "dễ"
      ],
      [
        "8",
        "những"
      ],
      [
        "8",
        "cổ"
      ],
      [
        "8",
        "nghiệp"
      ],
      [
        "8",
        "mùa"
      ],
      [
        "8",
        "tế"
      ],
      [
        "8",
        "này"
      ],
      [
        "8",
        "hội"
      ],
      [
        "8",
        "22"
      ],
      [
        "8",
        "đồng"
      ],
      [
        "8",
        "đông"
      ],
      [
        "9",
        "cho"
      ],
      [
        "9",
        "hiện"
      ],
      [
        "9",
        "gian"
      ],
      [
        "9",
        "động"
      ],
      [
        "9",
        "công"
      ],
      [
        "9",
        "trang"
      ],
      [
        "9",
        "thuật"
      ],
      [
        "9",
        "những"
      ],
      [
        "9",
        "điển"
      ],
      [
        "9",
        "hơn"
      ],
      [
        "9",
        "tế"
      ],
      [
        "9",
        "này"
      ],
      [
        "9",
        "khỏe"
      ],
      [
        "9",
        "hội"
      ],
      [
        "9",
        "tình"
      ],
      [
        "9",
        "đông"
      ],
      [
        "A",
        "C"
      ],
      [
        "A",
        "I"
      ],
      [
        "A",
        "S"
      ],
      [
        "A",
        "nh"
      ],
      [
        "B",
        "a"
      ],
      [
        "B",
        "u"
      ],
      [
        "B",
        "an"
      ],
      [
        "B",
        "ra"
      ],
      [
        "B",
        "ánh"
      ],
      [
        "B",
        "12"
      ],
      [
        "B",
        "ầu"
      ],
      [
        "B",
        "la"
      ],
      [
        "B",
        "or"
      ],
      [
        "C",
        "i"
      ],
      [
        "C",
        "o"
      ],
      [
        "C",
        "u"
      ],
      [
        "D",
        "o"
      ],
      [
        "D",
        "alla"
      ],
      [
        "D",
        "ort"
      ],
      [
        "F",
        "C"
      ],
      [
        "F",
        "r"
      ],
      [
        "G",
        "B"
      ],
      [
        "G",
        "ỗ"
      ],
      [
        "G",
        "ol"
      ],
      [
        "H",
        "ệ"
      ],
      [
        "H",
        "iện"
      ],
      [
        "I",
        "n"
      ],
      [
        "L",
        "i"
      ],
      [
        "L",
        "y"
      ],
      [
        "M",
        "ùa"
      ],
      [
        "M",
        "ột"
      ],
      [
        "N",
        "O"
      ],
      [
        "N",
        "ăm"
      ],
      [
        "O",
        "l"
      ],
      [
        "P",
        "a"
      ],
      [
        "P",
        "or"
      ],
      [
        "Q",
        "uốc"
      ],
      [
        "R",
        "o"
      ],
      [
        "R",
        "GB"
      ],
      [
        "S",
        "co"
      ],
      [
        "S",
        "ta"
      ],
      [
        "S",
        "can"
      ],
      [
        "S",
        "pur"
      ],
      [
        "T",
        "ây"
      ],
      [
        "T",
        "ot"
      ],
      [
        "U",
        "I"
      ],
      [
        "V",
        "al"
      ],
      [
        "W",
        "ar"
      ],
      [
        "Y",
        "an"
      ],
      [
        "Y",
        "ork"
      ],
      [
        "Z",
        "e"
      ],
      [
        "a",
        "go"
      ],
      [
        "a",
        "sen"
      ],
      [
        "b",
        "i"
      ],
      [
        "b",
        "á"
      ],
      [
        "b",
        "ò"
      ],
      [
        "b",
        "ặ"
      ],
      [
        "b",
        "ăng"
      ],
      [
        "b",
        "lo"
      ],
      [
        "b",
        "ọc"
      ],
      [
        "b",
        "ạch"
      ],
      [
        "b",
        "ẩn"
      ],
      [
        "b",
        "ước"
      ],
      [
        "b",
        "ởi"
      ],
      [
        "b",
        "ro"
      ],
      [
        "c",
        "ằ"
      ],
      [
        "c",
        "ám"
      ],
      [
        "c",
        "lo"
      ],
      [
        "c",
        "ống"
      ],
      [
        "c",
        "ơn"
      ],
      [
        "c",
        "át"
      ],
      [
        "c",
        "ay"
      ],
      [
        "c",
        "ẩn"
      ],
      [
        "c",
        "ắt"
      ],
      [
        "c",
        "ốt"
      ],
      [
        "d",
        "ứ"
      ],
      [
        "d",
        "anh"
      ],
      [
        "d",
        "ọn"
      ],
      [
        "d",
        "ần"
      ],
      [
        "d",
        "ội"
      ],
      [
        "d",
        "ẹp"
      ],
      [
        "d",
        "ge"
      ],
      [
        "d",
        "ứa"
      ],
      [
        "d",
        "ri"
      ],
      [
        "d",
        "ina"
      ],
      [
        "e",
        "y"
      ],
      [
        "e",
        "li"
      ],
      [
        "f",
        "o"
      ],
      [
        "f",
        "on"
      ],
      [
        "f",
        "ol"
      ],
      [
        "f",
        "lav"
      ],
      [
        "g",
        "ó"
      ],
      [
        "g",
        "ố"
      ],
      [
        "g",
        "en"
      ],
      [
        "g",
        "áp"
      ],
      [
        "g",
        "ga"
      ],
      [
        "g",
        "ói"
      ],
      [
        "g",
        "ừng"
      ],
      [
        "g",
        "by"
      ],
      [
        "h",
        "ả"
      ],
      [
        "h",
        "am"
      ],
      [
        "h",
        "ăng"
      ],
      [
        "h",
        "ối"
      ],
      [
        "h",
        "ái"
      ],
      [
        "h",
        "em"
      ],
      [
        "h",
        "iến"
      ],
      [
        "h",
        "ầu"
      ],
      [
        "h",
        "ôn"
      ],
      [
        "h",
        "ẹn"
      ],
      [
        "i",
        "l"
      ],
      [
        "i",
        "um"
      ],
      [
        "k",
        "èm"
      ],
      [
        "k",
        "iềm"
      ],
      [
        "k",
        "iểu"
      ],
      [
        "l",
        "ú"
      ],
      [
        "l",
        "ẫ"
      ],
      [
        "l",
        "ược"
      ],
      [
        "l",
        "ời"
      ],
      [
        "l",
        "im"
      ],
      [
        "l",
        "ẫn"
      ],
      [
        "l",
        "ộng"
      ],
      [
        "l",
        "in"
      ],
      [
        "l",
        "and"
      ],
      [
        "l",
        "ặp"
      ],
      [
        "m",
        "ù"
      ],
      [
        "m",
        "ổ"
      ],
      [
        "m",
        "âu"
      ],
      [
        "m",
        "ọng"
      ],
      [
        "m",
        "ịch"
      ],
      [
        "m",
        "ay"
      ],
      [
        "m",
        "ai"
      ],
      [
        "m",
        "ắn"
      ],
      [
        "m",
        "ar"
      ],
      [
        "m",
        "me"
      ],
      [
        "n",
        "d"
      ],
      [
        "n",
        "th"
      ],
      [
        "n",
        "ỗi"
      ],
      [
        "n",
        "ảy"
      ],
      [
        "o",
        "u"
      ],
      [
        "p",
        "en"
      ],
      [
        "p",
        "ian"
      ],
      [
        "r",
        "t"
      ],
      [
        "r",
        "ỗ"
      ],
      [
        "r",
        "ợ"
      ],
      [
        "r",
        "ùng"
      ],
      [
        "r",
        "ce"
      ],
      [
        "r",
        "ry"
      ],
      [
        "s",
        "ẻ"
      ],
      [
        "s",
        "àng"
      ],
      [
        "s",
        "tu"
      ],
      [
        "s",
        "el"
      ],
      [
        "s",
        "hi"
      ],
      [
        "t",
        "ẻ"
      ],
      [
        "t",
        "ân"
      ],
      [
        "t",
        "ắt"
      ],
      [
        "t",
        "àn"
      ],
      [
        "t",
        "oni"
      ],
      [
        "t",
        "úi"
      ],
      [
        "t",
        "land"
      ],
      [
        "u",
        "ssi"
      ],
      [
        "v",
        "ắng"
      ],
      [
        "v",
        "ẹn"
      ],
      [
        "v",
        "ừa"
      ],
      [
        "v",
        "er"
      ],
      [
        "w",
        "bo"
      ],
      [
        "x",
        "an"
      ],
      [
        "x",
        "ao"
      ],
      [
        "y",
        "s"
      ],
      [
        "z",
        "ea"
      ],
      [
        "z",
        "il"
      ],
      [
        "Đ",
        "ôi"
      ],
      [
        "Đ",
        "úng"
      ],
      [
        "đ",
        "ỗ"
      ],
      [
        "đ",
        "em"
      ],
      [
        "đ",
        "ua"
      ],
      [
        "ậ",
        "nh"
      ],
      [
        "ặ",
        "n"
      ],
      [
        "ể",
        "ng"
      ],
      [
        "ỳ",
        "nh"
      ],
      [
        "₃",
        "⁻)."
      ],
      [
        "ng",
        "ại"
      ],
      [
        "ng",
        "ừa"
      ],
      [
        "th",
        "ọ"
      ],
      [
        "th",
        "ang"
      ],
      [
        "th",
        "an"
      ],
      [
        "th",
        "ận"
      ],
      [
        "th",
        "ẫm"
      ],
      [
        "th",
        "ôn"
      ],
      [
        "th",
        "uốc"
      ],
      [
        "nh",
        "am"
      ],
      [
        "nh",
        "át"
      ],
      [
        "nh",
        "ẫn"
      ],
      [
        "nh",
        "ắn"
      ],
      [
        "nh",
        "ậnh"
      ],
      [
        "ch",
        "ạnh"
      ],
      [
        "ch",
        "ấm"
      ],
      [
        "ch",
        "ứng"
      ],
      [
        "ch",
        "ẳng"
      ],
      [
        "ch",
        "ướng"
      ],
      [
        "và",
        "quảng"
      ],
      [
        "tr",
        "y"
      ],
      [
        "tr",
        "ả"
      ],
      [
        "tr",
        "ùng"
      ],
      [
        "tr",
        "ọn"
      ],
      [
        "tr",
        "ao"
      ],
      [
        "tr",
        "ất"
      ],
      [
        "tr",
        "iệu"
      ],
      [
        "tr",
        "ận"
      ],
      [
        "tr",
        "ạm"
      ],
      [
        "gi",
        "áng"
      ],
      [
        "gi",
        "ục"
      ],
      [
        "màu",
        "các"
      ],
      [
        "ph",
        "o"
      ],
      [
        "ph",
        "en"
      ],
      [
        "ph",
        "ổi"
      ],
      [
        "ph",
        "ot"
      ],
      [
        "ph",
        "ẫu"
      ],
      [
        "tạ",
        "m"
      ],
      [
        "kh",
        "ô"
      ],
      [
        "kh",
        "ối"
      ],
      [
        "kh",
        "ấu"
      ],
      [
        "kh",
        "ốc"
      ],
      [
        "cho",
        "và"
      ],
      [
        "cho",
        "co"
      ],
      [
        "sự",
        "và"
      ],
      [
        "trong",
        "với"
      ],
      [
        "trong",
        "thị"
      ],
      [
        "trong",
        "tinh"
      ],
      [
        "thi",
        "c"
      ],
      [
        "thi",
        "n"
      ],
      [
        "các",
        "các"
      ],
      [
        "an",
        "ci"
      ],
      [
        "an",
        "ts"
      ],
      [
        "nên",
        "nhiên"
      ],
      [
        "qu",
        "ỷ"
      ],
      [
        "qu",
        "ỹ"
      ],
      [
        "qu",
        "anh"
      ],
      [
        "qu",
        "ân"
      ],
      [
        "qu",
        "ay"
      ],
      [
        "qu",
        "ạt"
      ],
      [
        "ho",
        "ạch"
      ],
      [
        "am",
        "e"
      ],
      [
        "am",
        "oni"
      ],
      [
        "ngh",
        "ề"
      ],
      [
        "một",
        "các"
      ],
      [
        "là",
        "áp"
      ],
      [
        "với",
        "mùa"
      ],
      [
        "ti",
        "v"
      ],
      [
        "ti",
        "ng"
      ],
      [
        "cam",
        "được"
      ],
      [
        "thu",
        "ẫn"
      ],
      [
        "te",
        "nham"
      ],
      [
        "mang",
        "an"
      ],
      [
        "en",
        "ci"
      ],
      [
        "nhạt",
        "thường"
      ],
      [
        "như",
        "bìa"
      ],
      [
        "thị",
        "mang"
      ],
      [
        "ra",
        "tho"
      ],
      [
        "si",
        "ne"
      ],
      [
        "nghệ",
        "tươi"
      ],
      [
        "Bạn",
        "thể"
      ],
      [
        "trọng",
        "thể"
      ],
      [
        "vui",
        "không"
      ],
      [
        "dễ",
        "cách"
      ],
      [
        "thì",
        "a"
      ],
      [
        "chuy",
        "ền"
      ],
      [
        "chuy",
        "ểng"
      ],
      [
        "phòng",
        "vì"
      ],
      [
        "cổ",
        "ng"
      ],
      [
        "tin",
        "thể"
      ],
      [
        "chuyên",
        "chuyên"
      ],
      [
        "bộ",
        "t"
      ],
      [
        "go",
        "ld"
      ],
      [
        "go",
        "thic"
      ],
      [
        "10",
        "trong"
      ],
      [
        "10",
        "thiết"
      ],
      [
        "10",
        "dụng"
      ],
      [
        "10",
        "phẩm"
      ],
      [
        "10",
        "gì"
      ],
      [
        "10",
        "chọn"
      ],
      [
        "10",
        "nhạc"
      ],
      [
        "10",
        "ngoài"
      ],
      [
        "hàng",
        "dễ"
      ],
      [
        "30",
        "không"
      ],
      [
        "30",
        "dùng"
      ],
      [
        "30",
        "gì"
      ],
      [
        "30",
        "gian"
      ],
      [
        "60",
        "nào"
      ],
      [
        "60",
        "trong"
      ],
      [
        "60",
        "nên"
      ],
      [
        "60",
        "phòng"
      ],
      [
        "19",
        "và"
      ],
      [
        "19",
        "sắc"
      ],
      [
        "19",
        "nên"
      ],
      [
        "19",
        "gì"
      ],
      [
        "19",
        "trang"
      ],
      [
        "19",
        "quan"
      ],
      [
        "12",
        "nào"
      ],
      [
        "12",
        "thiết"
      ],
      [
        "12",
        "gì"
      ],
      [
        "12",
        "chọn"
      ],
      [
        "12",
        "trang"
      ],
      [
        "12",
        "học"
      ],
      [
        "32",
        "3"
      ],
      [
        "32",
        "màu"
      ],
      [
        "32",
        "nào"
      ],
      [
        "32",
        "nghệ"
      ],
      [
        "32",
        "phòng"
      ],
      [
        "32",
        "này"
      ],
      [
        "42",
        "D"
      ],
      [
        "42",
        "màu"
      ],
      [
        "42",
        "nào"
      ],
      [
        "42",
        "không"
      ],
      [
        "42",
        "nghệ"
      ],
      [
        "52",
        "không"
      ],
      [
        "52",
        "nên"
      ],
      [
        "52",
        "gian"
      ],
      [
        "52",
        "nghệ"
      ],
      [
        "17",
        "nào"
      ],
      [
        "17",
        "thiết"
      ],
      [
        "17",
        "thuật"
      ],
      [
        "18",
        "nào"
      ],
      [
        "18",
        "gì"
      ],
      [
        "37",
        "thiết"
      ],
      [
        "37",
        "kế"
      ],
      [
        "38",
        "không"
      ],
      [
        "38",
        "game"
      ],
      [
        "39",
        "màu"
      ],
      [
        "39",
        "trong"
      ],
      [
        "39",
        "không"
      ],
      [
        "39",
        "gì"
      ],
      [
        "39",
        "phòng"
      ],
      [
        "39",
        "đường"
      ],
      [
        "40",
        "thiết"
      ],
      [
        "40",
        "thuật"
      ],
      [
        "40",
        "điển"
      ],
      [
        "40",
        "trời"
      ],
      [
        "47",
        "dùng"
      ],
      [
        "47",
        "phẩm"
      ],
      [
        "47",
        "nghệ"
      ],
      [
        "48",
        "màu"
      ],
      [
        "48",
        "thiết"
      ],
      [
        "48",
        "kế"
      ],
      [
        "49",
        "tạo"
      ],
      [
        "49",
        "trong"
      ],
      [
        "49",
        "thao"
      ],
      [
        "50",
        "thiết"
      ],
      [
        "50",
        "kế"
      ],
      [
        "50",
        "phẩm"
      ],
      [
        "50",
        "gì"
      ],
      [
        "50",
        "điểm"
[...]
